{
  "version": "1.0",
  "truncation": null,
  "padding": null,
  "added_tokens": [
    {
      "id": 0,
      "content": "<s>",
      "single_word": false,
      "lstrip": false,
      "rstrip": false,
      "normalized": false,
      "special": true
    },
    {
      "id": 1,
      "content": "<pad>",
      "single_word": false,
      "lstrip": false,
      "rstrip": false,
      "normalized": false,
      "special": true
    },
    {
      "id": 2,
      "content": "</s>",
      "single_word": false,
      "lstrip": false,
      "rstrip": false,
      "normalized": false,
      "special": true
    },
    {
      "id": 3,
      "content": "<unk>",
      "single_word": false,
      "lstrip": false,
      "rstrip": false,
      "normalized": false,
      "special": true
    },
    {
      "id": 4,
      "content": "<mask>",
      "single_word": false,
      "lstrip": false,
      "rstrip": false,
      "normalized": false,
      "special": true
    }
  ],
  "normalizer": null,
  "pre_tokenizer": {
    "type": "ByteLevel",
    "add_prefix_space": false,
    "trim_offsets": true,
    "use_regex": true
  },
  "post_processor": {
    "type": "ByteLevel",
    "add_prefix_space": true,
    "trim_offsets": false,
    "use_regex": true
  },
  "decoder": {
    "type": "ByteLevel",
    "add_prefix_space": true,
    "trim_offsets": true,
    "use_regex": true
  },
  "model": {
    "type": "BPE",
    "dropout": null,
    "unk_token": null,
    "continuing_subword_prefix": null,
    "end_of_word_suffix": null,
    "fuse_unk": false,
    "byte_fallback": false,
    "vocab": {
      "<s>": 0,
      "<pad>": 1,
      "</s>": 2,
      "<unk>": 3,
      "<mask>": 4,
      "!": 5,
      "\"": 6,
      "#": 7,
      "$": 8,
      "%": 9,
      "&": 10,
      "'": 11,
      "(": 12,
      ")": 13,
      "*": 14,
      "+": 15,
      ",": 16,
      "-": 17,
      ".": 18,
      "/": 19,
      "0": 20,
      "1": 21,
      "2": 22,
      "3": 23,
      "4": 24,
      "5": 25,
      "6": 26,
      "7": 27,
      "8": 28,
      "9": 29,
      ":": 30,
      ";": 31,
      "<": 32,
      "=": 33,
      ">": 34,
      "?": 35,
      "@": 36,
      "A": 37,
      "B": 38,
      "C": 39,
      "D": 40,
      "E": 41,
      "F": 42,
      "G": 43,
      "H": 44,
      "I": 45,
      "J": 46,
      "K": 47,
      "L": 48,
      "M": 49,
      "N": 50,
      "O": 51,
      "P": 52,
      "Q": 53,
      "R": 54,
      "S": 55,
      "T": 56,
      "U": 57,
      "V": 58,
      "W": 59,
      "X": 60,
      "Y": 61,
      "Z": 62,
      "[": 63,
      "\\": 64,
      "]": 65,
      "^": 66,
      "_": 67,
      "`": 68,
      "a": 69,
      "b": 70,
      "c": 71,
      "d": 72,
      "e": 73,
      "f": 74,
      "g": 75,
      "h": 76,
      "i": 77,
      "j": 78,
      "k": 79,
      "l": 80,
      "m": 81,
      "n": 82,
      "o": 83,
      "p": 84,
      "q": 85,
      "r": 86,
      "s": 87,
      "t": 88,
      "u": 89,
      "v": 90,
      "w": 91,
      "x": 92,
      "y": 93,
      "z": 94,
      "{": 95,
      "|": 96,
      "}": 97,
      "~": 98,
      "¡": 99,
      "¢": 100,
      "£": 101,
      "¤": 102,
      "¥": 103,
      "¦": 104,
      "§": 105,
      "¨": 106,
      "©": 107,
      "ª": 108,
      "«": 109,
      "¬": 110,
      "®": 111,
      "¯": 112,
      "°": 113,
      "±": 114,
      "²": 115,
      "³": 116,
      "´": 117,
      "µ": 118,
      "¶": 119,
      "·": 120,
      "¸": 121,
      "¹": 122,
      "º": 123,
      "»": 124,
      "¼": 125,
      "½": 126,
      "¾": 127,
      "¿": 128,
      "À": 129,
      "Á": 130,
      "Â": 131,
      "Ã": 132,
      "Ä": 133,
      "Å": 134,
      "Æ": 135,
      "Ç": 136,
      "È": 137,
      "É": 138,
      "Ê": 139,
      "Ë": 140,
      "Ì": 141,
      "Í": 142,
      "Î": 143,
      "Ï": 144,
      "Ð": 145,
      "Ñ": 146,
      "Ò": 147,
      "Ó": 148,
      "Ô": 149,
      "Õ": 150,
      "Ö": 151,
      "×": 152,
      "Ø": 153,
      "Ù": 154,
      "Ú": 155,
      "Û": 156,
      "Ü": 157,
      "Ý": 158,
      "Þ": 159,
      "ß": 160,
      "à": 161,
      "á": 162,
      "â": 163,
      "ã": 164,
      "ä": 165,
      "å": 166,
      "æ": 167,
      "ç": 168,
      "è": 169,
      "é": 170,
      "ê": 171,
      "ë": 172,
      "ì": 173,
      "í": 174,
      "î": 175,
      "ï": 176,
      "ð": 177,
      "ñ": 178,
      "ò": 179,
      "ó": 180,
      "ô": 181,
      "õ": 182,
      "ö": 183,
      "÷": 184,
      "ø": 185,
      "ù": 186,
      "ú": 187,
      "û": 188,
      "ü": 189,
      "ý": 190,
      "þ": 191,
      "ÿ": 192,
      "Ā": 193,
      "ā": 194,
      "Ă": 195,
      "ă": 196,
      "Ą": 197,
      "ą": 198,
      "Ć": 199,
      "ć": 200,
      "Ĉ": 201,
      "ĉ": 202,
      "Ċ": 203,
      "ċ": 204,
      "Č": 205,
      "č": 206,
      "Ď": 207,
      "ď": 208,
      "Đ": 209,
      "đ": 210,
      "Ē": 211,
      "ē": 212,
      "Ĕ": 213,
      "ĕ": 214,
      "Ė": 215,
      "ė": 216,
      "Ę": 217,
      "ę": 218,
      "Ě": 219,
      "ě": 220,
      "Ĝ": 221,
      "ĝ": 222,
      "Ğ": 223,
      "ğ": 224,
      "Ġ": 225,
      "ġ": 226,
      "Ģ": 227,
      "ģ": 228,
      "Ĥ": 229,
      "ĥ": 230,
      "Ħ": 231,
      "ħ": 232,
      "Ĩ": 233,
      "ĩ": 234,
      "Ī": 235,
      "ī": 236,
      "Ĭ": 237,
      "ĭ": 238,
      "Į": 239,
      "į": 240,
      "İ": 241,
      "ı": 242,
      "Ĳ": 243,
      "ĳ": 244,
      "Ĵ": 245,
      "ĵ": 246,
      "Ķ": 247,
      "ķ": 248,
      "ĸ": 249,
      "Ĺ": 250,
      "ĺ": 251,
      "Ļ": 252,
      "ļ": 253,
      "Ľ": 254,
      "ľ": 255,
      "Ŀ": 256,
      "ŀ": 257,
      "Ł": 258,
      "ł": 259,
      "Ń": 260,
      "Ġt": 261,
      "Ġth": 262,
      "Ġa": 263,
      "čĊ": 264,
      "ĠčĊ": 265,
      "in": 266,
      "er": 267,
      "Ġw": 268,
      "Ġthe": 269,
      "ou": 270,
      "Ġs": 271,
      "at": 272,
      "re": 273,
      "on": 274,
      "Ġh": 275,
      "nd": 276,
      "is": 277,
      "it": 278,
      "ing": 279,
      "Ġb": 280,
      "en": 281,
      "Ġc": 282,
      "Ġo": 283,
      "Ġto": 284,
      "or": 285,
      "Ġm": 286,
      "Ġp": 287,
      "an": 288,
      "Ġf": 289,
      "es": 290,
      "ll": 291,
      "Ġd": 292,
      "ed": 293,
      "Ġn": 294,
      "Ġof": 295,
      "Ġin": 296,
      "ar": 297,
      "Ġy": 298,
      "as": 299,
      "Ġl": 300,
      "Ġthat": 301,
      "Ġand": 302,
      "Ġg": 303,
      "om": 304,
      "Ġyou": 305,
      "ic": 306,
      "ve": 307,
      "ow": 308,
      "Ġbe": 309,
      "al": 310,
      "Ġwh": 311,
      "ĠI": 312,
      "'s": 313,
      "le": 314,
      "ot": 315,
      "us": 316,
      "id": 317,
      "ay": 318,
      "Ġis": 319,
      "Ġit": 320,
      "ion": 321,
      "ent": 322,
      "et": 323,
      "Ġha": 324,
      "ere": 325,
      "Ġe": 326,
      "Ġon": 327,
      "Th": 328,
      "Ġre": 329,
      "ver": 330,
      "ut": 331,
      "ig": 332,
      "Ġwe": 333,
      "ld": 334,
      "Ġdo": 335,
      "im": 336,
      "out": 337,
      "ac": 338,
      "Ġfor": 339,
      "Ġhe": 340,
      "se": 341,
      "Ġwas": 342,
      "Ġk": 343,
      "Ġthis": 344,
      "Ġ-": 345,
      "ly": 346,
      "Ġgo": 347,
      "Ġst": 348,
      "am": 349,
      "ro": 350,
      "st": 351,
      "And": 352,
      "ht": 353,
      "Ġhave": 354,
      "all": 355,
      "ke": 356,
      "ith": 357,
      "ĠC": 358,
      "'t": 359,
      "ill": 360,
      "if": 361,
      "Ġthey": 362,
      "ir": 363,
      "Ġwith": 364,
      "Ġan": 365,
      "Ġ--": 366,
      "op": 367,
      "ec": 368,
      "ad": 369,
      "ĠS": 370,
      "ight": 371,
      "Ġr": 372,
      "Ġare": 373,
      "Ġsh": 374,
      "Ġab": 375,
      "Ġj": 376,
      "ter": 377,
      "Ġnot": 378,
      "ould": 379,
      "th": 380,
      "Ġu": 381,
      "Ġkn": 382,
      "ome": 383,
      "The": 384,
      "ĠA": 385,
      "Ġas": 386,
      "ĠM": 387,
      "ation": 388,
      "ol": 389,
      "ur": 390,
      "We": 391,
      "ch": 392,
      "Ġknow": 393,
      "res": 394,
      "our": 395,
      "Ġme": 396,
      "od": 397,
      "Ġwhat": 398,
      "Ġat": 399,
      "ust": 400,
      "est": 401,
      "Ġabout": 402,
      "ce": 403,
      "ink": 404,
      "ant": 405,
      "ee": 406,
      "..": 407,
      "Ġli": 408,
      "'re": 409,
      "Ġthere": 410,
      "ally": 411,
      "very": 412,
      "Ġthink": 413,
      "ew": 414,
      "ers": 415,
      "ate": 416,
      "pp": 417,
      "ge": 418,
      "Ġfr": 419,
      "ore": 420,
      "il": 421,
      "Ġcon": 422,
      "Ġpe": 423,
      "ople": 424,
      "ĠB": 425,
      "Ġsay": 426,
      "Ġall": 427,
      "Ġgoing": 428,
      "Ġpeople": 429,
      "ĠP": 430,
      "ct": 431,
      "Ġtr": 432,
      "ain": 433,
      "Ġwho": 434,
      "Ġso": 435,
      "ist": 436,
      "Ġor": 437,
      "Ġjust": 438,
      "ment": 439,
      "ie": 440,
      "ear": 441,
      "ĠR": 442,
      "Ġch": 443,
      "ĠH": 444,
      "ĠD": 445,
      "ort": 446,
      "Wh": 447,
      "Ġpro": 448,
      "Ġout": 449,
      "ĠĠčĊ": 450,
      "Ġcom": 451,
      "and": 452,
      "ul": 453,
      "ess": 454,
      "Ġlo": 455,
      "ĠN": 456,
      "Ġlike": 457,
      "use": 458,
      "Ġde": 459,
      "Ġfrom": 460,
      "It": 461,
      "art": 462,
      "ack": 463,
      "ĠJ": 464,
      "ok": 465,
      "Ġbut": 466,
      "Ġget": 467,
      "Ġ\"": 468,
      "Ġwor": 469,
      "Ġsome": 470,
      "ea": 471,
      "Ġsu": 472,
      "Ġv": 473,
      "Ġhas": 474,
      "Ġwould": 475,
      "Ġsa": 476,
      "ive": 477,
      "her": 478,
      "But": 479,
      "oug": 480,
      "Ġal": 481,
      "one": 482,
      "nt": 483,
      "Ġex": 484,
      "Ġwere": 485,
      "Ġhad": 486,
      "You": 487,
      "Ġone": 488,
      "ĠT": 489,
      "qu": 490,
      "Ġup": 491,
      "ble": 492,
      "os": 493,
      "un": 494,
      "ĠG": 495,
      "ake": 496,
      "Ġne": 497,
      "ident": 498,
      "Ġcan": 499,
      "um": 500,
      "Ġ:": 501,
      "Ġ1": 502,
      "Ġdid": 503,
      "Ġhis": 504,
      "ice": 505,
      "ause": 506,
      "ri": 507,
      "ard": 508,
      "Ġif": 509,
      "Ġbec": 510,
      "ong": 511,
      "Ġright": 512,
      "Ġwant": 513,
      "ity": 514,
      "Ġbeen": 515,
      "ĠK": 516,
      "ime": 517,
      "ast": 518,
      "Ġvery": 519,
      "Ġmy": 520,
      "Ġwill": 521,
      "em": 522,
      "king": 523,
      "Ġshe": 524,
      "Ġwhen": 525,
      "ĠF": 526,
      "ind": 527,
      "mer": 528,
      "Ġthem": 529,
      "Ġby": 530,
      "ies": 531,
      "hing": 532,
      "Ġus": 533,
      "Ġag": 534,
      "Ġher": 535,
      "Ġsee": 536,
      "...": 537,
      "ap": 538,
      "ect": 539,
      "ry": 540,
      "Ġyour": 541,
      "Ġsp": 542,
      "Ġsaid": 543,
      "Ġnow": 544,
      "Ġthing": 545,
      "So": 546,
      "el": 547,
      "'m": 548,
      "are": 549,
      "Ġbecause": 550,
      "resident": 551,
      "Ġmore": 552,
      "ound": 553,
      "ud": 554,
      "Ġany": 555,
      "ĠW": 556,
      "ell": 557,
      "Ġpl": 558,
      "Ġyear": 559,
      "ans": 560,
      "Well": 561,
      "ĠL": 562,
      "Ġour": 563,
      "ich": 564,
      "Ġhere": 565,
      "ra": 566,
      "ous": 567,
      "That": 568,
      "ine": 569,
      "Ġno": 570,
      "oc": 571,
      "ost": 572,
      "act": 573,
      "Ġtheir": 574,
      "'ve": 575,
      "He": 576,
      "Ġle": 577,
      "Ġtime": 578,
      "ose": 579,
      "ough": 580,
      "Ġback": 581,
      "ĠO": 582,
      "ep": 583,
      "Ġqu": 584,
      "They": 585,
      "bl": 586,
      "Ġhim": 587,
      "ame": 588,
      "iv": 589,
      "ial": 590,
      "ank": 591,
      "00": 592,
      "Ġtal": 593,
      "Ġcou": 594,
      "Ġgot": 595,
      "itt": 596,
      "ag": 597,
      "ure": 598,
      "ĠU": 599,
      "int": 600,
      "ary": 601,
      "Ġim": 602,
      "ress": 603,
      "he": 604,
      "Ġthese": 605,
      "Ġevery": 606,
      "ber": 607,
      "Ġad": 608,
      "Ġev": 609,
      "Ġlook": 610,
      "Ġreally": 611,
      "ence": 612,
      "Ġman": 613,
      "Ġar": 614,
      "ther": 615,
      "reat": 616,
      "ide": 617,
      "ff": 618,
      "Ġhow": 619,
      "day": 620,
      "Ġint": 621,
      "Ġse": 622,
      "ia": 623,
      "Ġover": 624,
      "Ġoff": 625,
      "uch": 626,
      "Ġ)": 627,
      "Ġway": 628,
      "ip": 629,
      "Ġlot": 630,
      "ite": 631,
      "Ġpr": 632,
      "ak": 633,
      "Ġmean": 634,
      "ree": 635,
      "Ġcould": 636,
      "age": 637,
      "own": 638,
      "omet": 639,
      "ire": 640,
      "ning": 641,
      "meric": 642,
      "ue": 643,
      "ĠY": 644,
      "Ġtw": 645,
      "Ġpol": 646,
      "Ġ2": 647,
      "eah": 648,
      "What": 649,
      "irst": 650,
      "Ġother": 651,
      "ubl": 652,
      "ody": 653,
      "ions": 654,
      "Ġmuch": 655,
      "ab": 656,
      "Ġthen": 657,
      "Ġyears": 658,
      "ob": 659,
      "Ġsomet": 660,
      "Ġ(": 661,
      "Ġun": 662,
      "Ġco": 663,
      "Ġwhich": 664,
      "Ġwhere": 665,
      "Ġcl": 666,
      "ublic": 667,
      "ĠAmeric": 668,
      "Ġact": 669,
      "Ġpart": 670,
      "Ġnew": 671,
      "iz": 672,
      "Ġhapp": 673,
      "ass": 674,
      "ase": 675,
      "This": 676,
      "fter": 677,
      "ĠE": 678,
      "port": 679,
      "ned": 680,
      "Ġpo": 681,
      "ace": 682,
      "way": 683,
      "Ġday": 684,
      "ĠSt": 685,
      "Ġgood": 686,
      "Ġgu": 687,
      "Ġfirst": 688,
      "ug": 689,
      "Ġdoes": 690,
      "Ġmake": 691,
      "'ll": 692,
      "ĠNew": 693,
      "Ġpresident": 694,
      "ical": 695,
      "Ġcont": 696,
      "Ġwork": 697,
      "Ġcount": 698,
      "Ġen": 699,
      "Ġcomp": 700,
      "ond": 701,
      "vi": 702,
      "ild": 703,
      "Ġbr": 704,
      "ations": 705,
      "Ġexp": 706,
      "Ġagain": 707,
      "Ġthings": 708,
      "so": 709,
      "Ġac": 710,
      "Ġcall": 711,
      "Ġafter": 712,
      "Ġper": 713,
      "Ġthan": 714,
      "end": 715,
      "Ġres": 716,
      "Ġtwo": 717,
      "Ġdis": 718,
      "Ġsomething": 719,
      "Ġinto": 720,
      "body": 721,
      "Ġthose": 722,
      "Ġinter": 723,
      "Ġgr": 724,
      "Ġhappen": 725,
      "ood": 726,
      "ĠCh": 727,
      "ick": 728,
      "lie": 729,
      "ving": 730,
      "ated": 731,
      "ife": 732,
      "Ġcome": 733,
      "There": 734,
      "ne": 735,
      "ach": 736,
      "Ġshould": 737,
      "nder": 738,
      "ade": 739,
      "uc": 740,
      "other": 741,
      "Ġmay": 742,
      "Ġlet": 743,
      "amp": 744,
      "ance": 745,
      "AN": 746,
      "Ġcour": 747,
      "Ġtalk": 748,
      "ory": 749,
      "ates": 750,
      "Ġalso": 751,
      "orm": 752,
      "ign": 753,
      "Ġeven": 754,
      "Ġpre": 755,
      "aw": 756,
      "Ġtry": 757,
      "Ġwr": 758,
      "ict": 759,
      "Ġkind": 760,
      "Ġtake": 761,
      "iff": 762,
      "Yes": 763,
      "Ġca": 764,
      "Ġtoday": 765,
      "vern": 766,
      "sel": 767,
      "ied": 768,
      "Ġunder": 769,
      "ually": 770,
      "Ġwee": 771,
      "Ġneed": 772,
      "ord": 773,
      "hn": 774,
      "Ġwom": 775,
      "ouse": 776,
      "Ġquest": 777,
      "ert": 778,
      "ought": 779,
      "Ġapp": 780,
      "pt": 781,
      "Ġdown": 782,
      "ms": 783,
      "Ġrec": 784,
      "red": 785,
      "Ġcountry": 786,
      "Mr": 787,
      "Ġcr": 788,
      "Ġbeing": 789,
      "Ġonly": 790,
      "Ġwell": 791,
      "ĠV": 792,
      "Ġshow": 793,
      "ittle": 794,
      "ved": 795,
      "ĠThe": 796,
      "Ġbelie": 797,
      "able": 798,
      "ian": 799,
      "Yeah": 800,
      "She": 801,
      "Ġam": 802,
      "fore": 803,
      "ting": 804,
      "Ġbo": 805,
      "eel": 806,
      "thing": 807,
      "Ġtell": 808,
      "ors": 809,
      "Ġsays": 810,
      "Ġlittle": 811,
      "Ġro": 812,
      "Ġcomm": 813,
      "ark": 814,
      "Ġinv": 815,
      "Ġmany": 816,
      "ish": 817,
      "Ġput": 818,
      "Ġdiff": 819,
      "ath": 820,
      "Ġsc": 821,
      "erson": 822,
      "og": 823,
      "ether": 824,
      "xt": 825,
      "Ġdec": 826,
      "Ġinc": 827,
      "av": 828,
      "Ġatt": 829,
      "Ġlast": 830,
      "Ġweek": 831,
      "ult": 832,
      "Ġgovern": 833,
      "Ġgreat": 834,
      "Ġwar": 835,
      "Ġthr": 836,
      "Ġbig": 837,
      "Ġ10": 838,
      "Ġmo": 839,
      "Ġchild": 840,
      "Ġpoint": 841,
      "rat": 842,
      "wn": 843,
      "Ġstate": 844,
      "Ġbet": 845,
      "ily": 846,
      "Ġstart": 847,
      "oice": 848,
      "Ġfact": 849,
      "ren": 850,
      "ang": 851,
      "ys": 852,
      "ĠRep": 853,
      "Ġfam": 854,
      "Ġmost": 855,
      "ail": 856,
      "Ġfeel": 857,
      "ons": 858,
      "ited": 859,
      "Ġsaying": 860,
      "over": 861,
      "ĠUn": 862,
      "man": 863,
      "Ġsupp": 864,
      "Ġbefore": 865,
      "imes": 866,
      "Ġhel": 867,
      "Ġstill": 868,
      "ump": 869,
      "Thank": 870,
      "In": 871,
      "ty": 872,
      "aking": 873,
      "Ġbl": 874,
      "ĠWh": 875,
      "Ġwhy": 876,
      "Ġsec": 877,
      "Ġser": 878,
      "Ġask": 879,
      "Ġmade": 880,
      "Ġjob": 881,
      "ĠPresident": 882,
      "IN": 883,
      "Now": 884,
      "Ġlong": 885,
      "ens": 886,
      "Ġdoing": 887,
      "Ġnever": 888,
      "No": 889,
      "ĠRepublic": 890,
      "ĠJo": 891,
      "Ġrem": 892,
      "Ġhelp": 893,
      "ves": 894,
      "ork": 895,
      "All": 896,
      "Ġquestion": 897,
      "Ġlife": 898,
      "Ġbelieve": 899,
      "ition": 900,
      "Ġperson": 901,
      "Ġreal": 902,
      "Ġop": 903,
      "Ġacc": 904,
      "iss": 905,
      "Ġter": 906,
      "Ġiss": 907,
      "eep": 908,
      "Ġpolit": 909,
      "Ġactually": 910,
      "ute": 911,
      "Ġlaw": 912,
      "oney": 913,
      "Ġgovernment": 914,
      "ile": 915,
      "ĠMr": 916,
      "Ġthrough": 917,
      "lect": 918,
      "Ġproble": 919,
      "If": 920,
      "pl": 921,
      "ton": 922,
      "Ġdef": 923,
      "old": 924,
      "Ġte": 925,
      "ense": 926,
      "ater": 927,
      "oth": 928,
      "Ġstr": 929,
      "Ġthree": 930,
      "eral": 931,
      "vers": 932,
      "Ġits": 933,
      "ocrat": 934,
      "ĠAmerican": 935,
      "Ġcare": 936,
      "be": 937,
      "Ġnext": 938,
      "Ġ;": 939,
      "Ġpos": 940,
      "ĠHouse": 941,
      "Ġvot": 942,
      "ible": 943,
      "Ġtoo": 944,
      "ues": 945,
      "Ġph": 946,
      "Ġmor": 947,
      "self": 948,
      "ib": 949,
      "Ġend": 950,
      "Ġdiffer": 951,
      "ON": 952,
      "form": 953,
      "Ġcons": 954,
      "Ġmoney": 955,
      "Ġplay": 956,
      "Ġtalking": 957,
      "emocrat": 958,
      "ious": 959,
      "ss": 960,
      "ĠTr": 961,
      "gr": 962,
      "Ġown": 963,
      "ful": 964,
      "Ġmon": 965,
      "atch": 966,
      "up": 967,
      "Ġ3": 968,
      "ise": 969,
      "Ġind": 970,
      "Ġhear": 971,
      "con": 972,
      "ĠAnd": 973,
      "Ġaround": 974,
      "air": 975,
      "ĠDemocrat": 976,
      "ration": 977,
      "Ġ19": 978,
      "Ġcase": 979,
      "ull": 980,
      "Ġdone": 981,
      "Ġreport": 982,
      "Ġtur": 983,
      "'d": 984,
      "Ġwomen": 985,
      "ways": 986,
      "ush": 987,
      "ady": 988,
      "09": 989,
      "ather": 990,
      "Ġtrying": 991,
      "Do": 992,
      "ama": 993,
      "Ġsur": 994,
      "ward": 995,
      "Ġworld": 996,
      "Ġrel": 997,
      "ĠCl": 998,
      "Ġcourse": 999,
      "ER": 1000,
      "Ġ$": 1001,
      "und": 1002,
      "Ġanother": 1003,
      "ating": 1004,
      "ft": 1005,
      "Ġthought": 1006,
      "anc": 1007,
      "Ġins": 1008,
      "vel": 1009,
      "ual": 1010,
      "ically": 1011,
      "Ġbus": 1012,
      "mb": 1013,
      "Ġwent": 1014,
      "igh": 1015,
      "lear": 1016,
      "ents": 1017,
      "Ġmorning": 1018,
      "uct": 1019,
      "ertain": 1020,
      ",'": 1021,
      "iet": 1022,
      "Ġagainst": 1023,
      "Ġalways": 1024,
      "Ġfin": 1025,
      "illion": 1026,
      "ments": 1027,
      "Ġsame": 1028,
      "Ġrun": 1029,
      "Ġ09": 1030,
      "Ġhome": 1031,
      "Ġlead": 1032,
      "ĠJohn": 1033,
      "ange": 1034,
      "Ġchildren": 1035,
      "Ġnight": 1036,
      "Ġstory": 1037,
      "How": 1038,
      "ax": 1039,
      "cer": 1040,
      "cent": 1041,
      "Ġimp": 1042,
      "ĠYork": 1043,
      "Oh": 1044,
      "RE": 1045,
      "Ġcame": 1046,
      "Ġmin": 1047,
      "ational": 1048,
      "Ġcamp": 1049,
      "Ġrep": 1050,
      "Ġmom": 1051,
      "Ġbu": 1052,
      "ĠOb": 1053,
      "hip": 1054,
      "ics": 1055,
      "Ġear": 1056,
      "Let": 1057,
      "ng": 1058,
      "Ġmed": 1059,
      "Ġgive": 1060,
      "ING": 1061,
      "ĠTrump": 1062,
      "eg": 1063,
      "Ġfind": 1064,
      "ashing": 1065,
      "conom": 1066,
      "li": 1067,
      "ower": 1068,
      "Ġimport": 1069,
      "Ġbre": 1070,
      "ait": 1071,
      "we": 1072,
      "Ġsort": 1073,
      "Ġpublic": 1074,
      "Ġkeep": 1075,
      "oll": 1076,
      "Ġcoming": 1077,
      "Ġdeal": 1078,
      "Ġbeg": 1079,
      "Ġconf": 1080,
      "min": 1081,
      "Ġinvest": 1082,
      "Ġfl": 1083,
      "ĠUnited": 1084,
      "ĠSen": 1085,
      "Ġvi": 1086,
      "ret": 1087,
      "ool": 1088,
      "ision": 1089,
      "aug": 1090,
      "Ġeconom": 1091,
      "ney": 1092,
      "Ġfamily": 1093,
      "uss": 1094,
      "ongress": 1095,
      "Ġmonth": 1096,
      "ution": 1097,
      "Ġplan": 1098,
      "ope": 1099,
      "az": 1100,
      "Ġkid": 1101,
      "ters": 1102,
      "oy": 1103,
      "pect": 1104,
      "enc": 1105,
      "Ġcar": 1106,
      "ably": 1107,
      "Ġpercent": 1108,
      "Ġboth": 1109,
      "Ġdr": 1110,
      "Ġsm": 1111,
      "Ġbas": 1112,
      "Ġnum": 1113,
      "Ġever": 1114,
      "Ġstand": 1115,
      "ock": 1116,
      "Ġsch": 1117,
      "Ġtold": 1118,
      "Ġleg": 1119,
      "Ġimportant": 1120,
      "ashington": 1121,
      "ator": 1122,
      "Ġhand": 1123,
      "Ġgetting": 1124,
      "ĠWhite": 1125,
      "Ġinterest": 1126,
      "uck": 1127,
      "Ġago": 1128,
      "Ġanything": 1129,
      "view": 1130,
      "ven": 1131,
      "Ġdes": 1132,
      "Ġyes": 1133,
      "alth": 1134,
      "Ġnews": 1135,
      "iness": 1136,
      "ĠWashington": 1137,
      "ont": 1138,
      "Ġcor": 1139,
      "ix": 1140,
      "ember": 1141,
      "Ġcontin": 1142,
      "Right": 1143,
      "arent": 1144,
      "cess": 1145,
      "Ġel": 1146,
      "ilit": 1147,
      "iend": 1148,
      "Ġhard": 1149,
      "Ġcertain": 1150,
      "Ġproblem": 1151,
      "Ġdifferent": 1152,
      "Ġunderst": 1153,
      "Ġsy": 1154,
      "Ġob": 1155,
      "Ġsupport": 1156,
      "When": 1157,
      "Ġwanted": 1158,
      "Ġass": 1159,
      "akes": 1160,
      "Ġ20": 1161,
      "ĠObama": 1162,
      "Ġthank": 1163,
      "000": 1164,
      "Ġelect": 1165,
      "Ġkill": 1166,
      "Ġcalled": 1167,
      "les": 1168,
      "Ġmight": 1169,
      "Ġgen": 1170,
      "ĠCongress": 1171,
      "Ġsure": 1172,
      "Ġsit": 1173,
      "ative": 1174,
      "Ġfar": 1175,
      "Ġpay": 1176,
      "inton": 1177,
      "Ġaway": 1178,
      "Ġset": 1179,
      "Ġfound": 1180,
      "ese": 1181,
      "Ġlove": 1182,
      "ts": 1183,
      "ĠWe": 1184,
      "ings": 1185,
      "der": 1186,
      "ever": 1187,
      "ĠStates": 1188,
      "oin": 1189,
      "uth": 1190,
      "ĠNews": 1191,
      "Ġhappened": 1192,
      "Ġtax": 1193,
      "ention": 1194,
      "Ġwhether": 1195,
      "uring": 1196,
      "Ġwatch": 1197,
      "ook": 1198,
      "ince": 1199,
      "ility": 1200,
      "arg": 1201,
      "its": 1202,
      "AT": 1203,
      "ason": 1204,
      "Ġhaving": 1205,
      "Ġword": 1206,
      "ner": 1207,
      "son": 1208,
      "onight": 1209,
      "ists": 1210,
      "Ġbook": 1211,
      "Ġinvestig": 1212,
      "Ġunderstand": 1213,
      "Ġ.": 1214,
      "Ġhead": 1215,
      "Ġreg": 1216,
      "Ġable": 1217,
      "ave": 1218,
      "ĠClinton": 1219,
      "Ġissue": 1220,
      "ĠIra": 1221,
      "Ġprob": 1222,
      "Ġ5": 1223,
      "Ġfriend": 1224,
      "te": 1225,
      "Ġhigh": 1226,
      "Is": 1227,
      "Ġclear": 1228,
      "osed": 1229,
      "Ġoffic": 1230,
      "Ġpolitical": 1231,
      "voice": 1232,
      "Ġhour": 1233,
      "Ġpass": 1234,
      "Ġcoll": 1235,
      "Ġdays": 1236,
      "als": 1237,
      "Ġdisc": 1238,
      "Ġopp": 1239,
      "wh": 1240,
      "Ġheard": 1241,
      "Ġwhole": 1242,
      "ular": 1243,
      "NING": 1244,
      "ple": 1245,
      "Ġ4": 1246,
      "Ġlist": 1247,
      "Ġread": 1248,
      "ĠAmerica": 1249,
      "Ġbetter": 1250,
      "ĠIraq": 1251,
      "ĠBr": 1252,
      "idence": 1253,
      "ross": 1254,
      "Ġbusiness": 1255,
      "Ġdet": 1256,
      "Ġyoung": 1257,
      "Ġcampa": 1258,
      "Ġold": 1259,
      "Ġcourt": 1260,
      "ness": 1261,
      "ash": 1262,
      "Ġbit": 1263,
      "erv": 1264,
      "ĠMar": 1265,
      "Ġfour": 1266,
      "Ġstop": 1267,
      "Ġschool": 1268,
      "ris": 1269,
      "oup": 1270,
      "med": 1271,
      "Ġleft": 1272,
      "ĠRepublican": 1273,
      "ount": 1274,
      "minist": 1275,
      "ks": 1276,
      "io": 1277,
      "Ġkids": 1278,
      "Ġthough": 1279,
      "ified": 1280,
      "Ġadd": 1281,
      "Ġmaybe": 1282,
      "ĠYou": 1283,
      "enned": 1284,
      "Ġpri": 1285,
      "Why": 1286,
      "Ġplace": 1287,
      "Ġprobably": 1288,
      "Ġgiv": 1289,
      "Ġused": 1290,
      "Ġeverybody": 1291,
      "Ġeverything": 1292,
      "Ġret": 1293,
      "ific": 1294,
      "REA": 1295,
      "atter": 1296,
      "omm": 1297,
      "Ġstud": 1298,
      "ĠSo": 1299,
      "Ġsecond": 1300,
      "sol": 1301,
      "gether": 1302,
      "Ġtogether": 1303,
      "Ġwoman": 1304,
      "Ġmen": 1305,
      "ief": 1306,
      "Ġworking": 1307,
      "ities": 1308,
      "Ġma": 1309,
      "irect": 1310,
      "Ġnumber": 1311,
      "Ġcampaign": 1312,
      "Ġbad": 1313,
      "udge": 1314,
      "Ġpolic": 1315,
      "rem": 1316,
      "Ġeff": 1317,
      "ween": 1318,
      "Ġ,": 1319,
      "Ġbest": 1320,
      "Ġjoin": 1321,
      "Ġadminist": 1322,
      "solute": 1323,
      "Ġseen": 1324,
      "Ġelse": 1325,
      "Ġfight": 1326,
      "Ġhealth": 1327,
      "olog": 1328,
      "unity": 1329,
      "Ġspec": 1330,
      "Ġenough": 1331,
      "Ġent": 1332,
      "Ġtest": 1333,
      "Ġfew": 1334,
      "ĠMc": 1335,
      "Ġdeb": 1336,
      "Ġbetween": 1337,
      "Ġmoment": 1338,
      "nam": 1339,
      "sh": 1340,
      "Ġsim": 1341,
      "ey": 1342,
      "Ġmaking": 1343,
      "Ġlea": 1344,
      "vious": 1345,
      "Ġhope": 1346,
      "ĠCAN": 1347,
      "Ġbreak": 1348,
      "DREA": 1349,
      "Ġid": 1350,
      "ĠCANNING": 1351,
      "Ġpolice": 1352,
      "land": 1353,
      "oot": 1354,
      "Ġuse": 1355,
      "Ġparent": 1356,
      "stem": 1357,
      "Ġside": 1358,
      "Ġlooking": 1359,
      "get": 1360,
      "Ġtonight": 1361,
      "Ġmilit": 1362,
      "Ġresp": 1363,
      "ecause": 1364,
      "Ġagree": 1365,
      "Ġopen": 1366,
      "ns": 1367,
      "Ġmar": 1368,
      "rop": 1369,
      "Ġknew": 1370,
      "Ġposs": 1371,
      "ized": 1372,
      "ially": 1373,
      "Ġtook": 1374,
      "Ġbring": 1375,
      "Ġsystem": 1376,
      "Ġadministration": 1377,
      "Ġnt": 1378,
      "Ġsex": 1379,
      "app": 1380,
      "Ġsub": 1381,
      "ĠRepublicans": 1382,
      "Ġchange": 1383,
      "ize": 1384,
      "Ġwrong": 1385,
      "Ġstarted": 1386,
      "jor": 1387,
      "uff": 1388,
      "Ġlater": 1389,
      "Ġcompan": 1390,
      "Ġgroup": 1391,
      "Ġidea": 1392,
      "Ġmillion": 1393,
      "Ġsaw": 1394,
      "head": 1395,
      "cial": 1396,
      "Ġpress": 1397,
      "ĠIs": 1398,
      "Ġguy": 1399,
      "ennedy": 1400,
      "lud": 1401,
      "att": 1402,
      "Ġinst": 1403,
      "Ġem": 1404,
      "Ġsomebody": 1405,
      "Ġcontro": 1406,
      "fr": 1407,
      "Ġpres": 1408,
      "ote": 1409,
      "gram": 1410,
      "As": 1411,
      "ced": 1412,
      "ject": 1413,
      "Ġext": 1414,
      "ger": 1415,
      "kay": 1416,
      "rist": 1417,
      "Ġfive": 1418,
      "ately": 1419,
      "Ġguys": 1420,
      "solutely": 1421,
      "OK": 1422,
      "gan": 1423,
      "ina": 1424,
      "ĠIt": 1425,
      "Ġwin": 1426,
      "Ġinterview": 1427,
      "ny": 1428,
      "For": 1429,
      "Ġmove": 1430,
      "Ġremember": 1431,
      "Ġmonths": 1432,
      "ĠCar": 1433,
      "Ġtrans": 1434,
      "sw": 1435,
      "ready": 1436,
      "ĠAd": 1437,
      "AR": 1438,
      "gest": 1439,
      "Ġed": 1440,
      "ism": 1441,
      "Ġbill": 1442,
      "Ġfun": 1443,
      "Ġdirect": 1444,
      "Ġprogram": 1445,
      "Ġcover": 1446,
      "Ġpret": 1447,
      "per": 1448,
      "Ġbeh": 1449,
      "Ġrest": 1450,
      "ience": 1451,
      "ets": 1452,
      "Ġwithout": 1453,
      "ah": 1454,
      "ex": 1455,
      "Ġalready": 1456,
      "BC": 1457,
      "EL": 1458,
      "Ġtimes": 1459,
      "most": 1460,
      "Ġevidence": 1461,
      "Ġchang": 1462,
      "Ġtrue": 1463,
      "Ġprot": 1464,
      "ĠDemocrats": 1465,
      "Ġview": 1466,
      "Ġmilitary": 1467,
      "Ġsense": 1468,
      "Ġansw": 1469,
      "Ġspea": 1470,
      "ru": 1471,
      "Ġless": 1472,
      "Ġref": 1473,
      "Ġbegin": 1474,
      "Ġduring": 1475,
      "Ġair": 1476,
      "Ġmeet": 1477,
      "Ġcomes": 1478,
      "ired": 1479,
      "row": 1480,
      "ital": 1481,
      "ley": 1482,
      "Ġsomeone": 1483,
      "Because": 1484,
      "ures": 1485,
      "ying": 1486,
      "orn": 1487,
      "Ġpower": 1488,
      "Ġsuch": 1489,
      "ĠWell": 1490,
      "Ġmark": 1491,
      "Ġwhile": 1492,
      "ĠBill": 1493,
      "actly": 1494,
      "Ġcut": 1495,
      "Ġunt": 1496,
      "Ġadv": 1497,
      "aken": 1498,
      "ietnam": 1499,
      "--": 1500,
      "Ġwait": 1501,
      "Ġtop": 1502,
      "Ġlear": 1503,
      "Ġsince": 1504,
      "ars": 1505,
      "irl": 1506,
      "Ġsitu": 1507,
      "Ġnothing": 1508,
      "ĠVietnam": 1509,
      "ike": 1510,
      "Ġsl": 1511,
      "ott": 1512,
      "Ġconcer": 1513,
      "Good": 1514,
      "Ġreason": 1515,
      "ĠAmericans": 1516,
      "Ġasked": 1517,
      "Ġrelations": 1518,
      "Ġmajor": 1519,
      "ces": 1520,
      "line": 1521,
      "Ġahead": 1522,
      "ĠCon": 1523,
      "ĠAl": 1524,
      "Ġpretty": 1525,
      "Ġmind": 1526,
      "oun": 1527,
      "used": 1528,
      "Ġdep": 1529,
      "Ġalmost": 1530,
      "ĠFr": 1531,
      "duct": 1532,
      "ald": 1533,
      "Ġlive": 1534,
      "Ġdeath": 1535,
      "Ġvoice": 1536,
      "Ġleast": 1537,
      "ians": 1538,
      "Ġra": 1539,
      "ef": 1540,
      "cept": 1541,
      "Ġloc": 1542,
      "ives": 1543,
      "ison": 1544,
      "Ġexpl": 1545,
      "Ġissues": 1546,
      "One": 1547,
      "Ġ6": 1548,
      "Ġfore": 1549,
      "ared": 1550,
      "ĠMary": 1551,
      "rib": 1552,
      "Ġattack": 1553,
      "Ġcertainly": 1554,
      "ered": 1555,
      "ried": 1556,
      "Ġeconomy": 1557,
      "Ġve": 1558,
      "Ġpict": 1559,
      "Ġonce": 1560,
      "outh": 1561,
      "ĠHe": 1562,
      "Ġexpect": 1563,
      "led": 1564,
      "ices": 1565,
      "ĠIn": 1566,
      "idd": 1567,
      "mm": 1568,
      "Ġhum": 1569,
      "ĠCour": 1570,
      "Ġjobs": 1571,
      "ream": 1572,
      "Ġpolicy": 1573,
      "Ġuntil": 1574,
      "ĠTh": 1575,
      "Ġhist": 1576,
      "Ġinclud": 1577,
      "ier": 1578,
      "ony": 1579,
      "Ġpast": 1580,
      "Ġeach": 1581,
      "ĠRom": 1582,
      "Ġpartic": 1583,
      "Ġvote": 1584,
      "ean": 1585,
      "ering": 1586,
      "Ġlisten": 1587,
      "Ġparents": 1588,
      "ape": 1589,
      "Ġmedia": 1590,
      "of": 1591,
      "Ġsign": 1592,
      "ĠGe": 1593,
      "Ġoffice": 1594,
      "Ġtalked": 1595,
      "Ġsing": 1596,
      "onald": 1597,
      "Ġmatter": 1598,
      "alf": 1599,
      "Ġhold": 1600,
      "Ġline": 1601,
      "Ġinvol": 1602,
      "LE": 1603,
      "oke": 1604,
      "Ġtaking": 1605,
      "ister": 1606,
      "Ġmakes": 1607,
      "Ġinform": 1608,
      "alk": 1609,
      "Ġdem": 1610,
      "Ġwants": 1611,
      "ĠKennedy": 1612,
      "ollow": 1613,
      "ĠCourt": 1614,
      "Ġspend": 1615,
      "Ġbro": 1616,
      "omin": 1617,
      "ĠBush": 1618,
      "avid": 1619,
      "ines": 1620,
      "Ġclose": 1621,
      "My": 1622,
      "Ġname": 1623,
      "Ġformer": 1624,
      "Ġstay": 1625,
      "Here": 1626,
      "ĠRuss": 1627,
      "Ġcouple": 1628,
      "ov": 1629,
      "Ġtaken": 1630,
      "ories": 1631,
      "Ġmess": 1632,
      "ĠSh": 1633,
      "ĠKat": 1634,
      "Ġstrong": 1635,
      "viously": 1636,
      "Ġsituation": 1637,
      "Ġ9": 1638,
      "Ġyeah": 1639,
      "Ms": 1640,
      "ran": 1641,
      "ising": 1642,
      "ĠAr": 1643,
      "Ġchar": 1644,
      "Ġlost": 1645,
      "Ġseems": 1646,
      "ĠYeah": 1647,
      "IE": 1648,
      "Ġtreat": 1649,
      "Ġaff": 1650,
      "Ġprov": 1651,
      "reme": 1652,
      "NN": 1653,
      "come": 1654,
      "Ġwife": 1655,
      "ases": 1656,
      "Ġparty": 1657,
      "ient": 1658,
      "Ġgoes": 1659,
      "urity": 1660,
      "Ġmother": 1661,
      "icult": 1662,
      "tern": 1663,
      "ĠMich": 1664,
      "Ġcap": 1665,
      "Ġimm": 1666,
      "ĠChrist": 1667,
      "Ġfollow": 1668,
      "Ġprocess": 1669,
      "andid": 1670,
      "selves": 1671,
      "ten": 1672,
      "Ġfair": 1673,
      "acy": 1674,
      "Ġstatement": 1675,
      "On": 1676,
      "ph": 1677,
      "Ġwond": 1678,
      "Ġgirl": 1679,
      "ided": 1680,
      "Ġconv": 1681,
      "cl": 1682,
      "Ġdist": 1683,
      "ale": 1684,
      "Ġsmall": 1685,
      "Thanks": 1686,
      "nal": 1687,
      "ury": 1688,
      "aught": 1689,
      "side": 1690,
      "amb": 1691,
      "Ġguess": 1692,
      "Ġrecord": 1693,
      "Ġleaders": 1694,
      "Un": 1695,
      "ivers": 1696,
      "Ġmov": 1697,
      "Not": 1698,
      "Ġmust": 1699,
      "ĠNo": 1700,
      "Ġquestions": 1701,
      "Ġroom": 1702,
      "Ġweeks": 1703,
      "Ġfamil": 1704,
      "ĠAdam": 1705,
      "Ġforward": 1706,
      "Ġstuff": 1707,
      "ants": 1708,
      "ĠRo": 1709,
      "ĠDr": 1710,
      "ousand": 1711,
      "my": 1712,
      "Ġprof": 1713,
      "ĠGod": 1714,
      "Ġdifficult": 1715,
      "gress": 1716,
      "ins": 1717,
      "Ġcur": 1718,
      "Ġfront": 1719,
      "Ġcontinue": 1720,
      "Ġyet": 1721,
      "ANDREA": 1722,
      "Ġproblems": 1723,
      "Ġturn": 1724,
      "undred": 1725,
      "band": 1726,
      "Ġcandid": 1727,
      "ĠBut": 1728,
      "ĠWhat": 1729,
      "Ġage": 1730,
      "Ġhouse": 1731,
      "lev": 1732,
      "usband": 1733,
      "Ġexactly": 1734,
      "Ġbecome": 1735,
      "Ġterms": 1736,
      "Ġturned": 1737,
      "ĠSenator": 1738,
      "ĠGeor": 1739,
      "Ġinformation": 1740,
      "ĠKatie": 1741,
      "Ġfed": 1742,
      "omb": 1743,
      "ither": 1744,
      "artment": 1745,
      "Ġsuc": 1746,
      "Ġquite": 1747,
      "Ġrelationship": 1748,
      "pr": 1749,
      "Ġsent": 1750,
      "Ġsix": 1751,
      "stit": 1752,
      "aged": 1753,
      "Ġserious": 1754,
      "to": 1755,
      "ument": 1756,
      "Ġsen": 1757,
      "ann": 1758,
      "Ġhimself": 1759,
      "Ġbuild": 1760,
      "Ġfriends": 1761,
      "where": 1762,
      "OR": 1763,
      "Ġsw": 1764,
      "Ġhundred": 1765,
      "Ġgl": 1766,
      "imin": 1767,
      "Ġheart": 1768,
      "ops": 1769,
      "less": 1770,
      "Ġthousand": 1771,
      "Ġmet": 1772,
      "Ġmeans": 1773,
      "Ġallow": 1774,
      "ling": 1775,
      "Ġfel": 1776,
      "ides": 1777,
      "ĠSup": 1778,
      "Ġexper": 1779,
      "Ġanswer": 1780,
      "Ġparticular": 1781,
      "Ġes": 1782,
      "Ġhappens": 1783,
      "Ġgeneral": 1784,
      "iddle": 1785,
      "Ġsound": 1786,
      "ĠABC": 1787,
      "Ġacross": 1788,
      "St": 1789,
      "by": 1790,
      "eal": 1791,
      "Ġ7": 1792,
      "Ġhusband": 1793,
      "Ġexamp": 1794,
      "Ġarg": 1795,
      "ency": 1796,
      "Ġ8": 1797,
      "Ġsol": 1798,
      "ĠBob": 1799,
      "ĠDavid": 1800,
      "ages": 1801,
      "BI": 1802,
      "oint": 1803,
      "rew": 1804,
      "lease": 1805,
      "Ġdoll": 1806,
      "sec": 1807,
      "ĠComm": 1808,
      "eck": 1809,
      "Ġanybody": 1810,
      "ĠSenate": 1811,
      "gy": 1812,
      "year": 1813,
      "Ġsk": 1814,
      "thers": 1815,
      "ĠOh": 1816,
      "Ġquick": 1817,
      "athy": 1818,
      "Ġconserv": 1819,
      "Ġeffect": 1820,
      "ub": 1821,
      "orrow": 1822,
      "Ġfil": 1823,
      "Ġeas": 1824,
      "Ġorgan": 1825,
      "Ġcrit": 1826,
      "Ġcommunity": 1827,
      "Ġdecision": 1828,
      "Ġterr": 1829,
      "Ġkilled": 1830,
      "aim": 1831,
      "Ġhit": 1832,
      "eter": 1833,
      "Ġworked": 1834,
      "eople": 1835,
      "ech": 1836,
      "ained": 1837,
      "identified": 1838,
      "Ġcomple": 1839,
      "Are": 1840,
      "Ġmus": 1841,
      "Ġpat": 1842,
      "Ġdiv": 1843,
      "Ġalleg": 1844,
      "Ġorder": 1845,
      "Ġsug": 1846,
      "Ġprom": 1847,
      "Ġoper": 1848,
      "Ġinvestigation": 1849,
      "lcome": 1850,
      "yp": 1851,
      "Ġwo": 1852,
      "Ġlim": 1853,
      "Ġgets": 1854,
      "rael": 1855,
      "Ġdiscuss": 1856,
      "cc": 1857,
      "Ġmiss": 1858,
      "Ġpick": 1859,
      "Ġfire": 1860,
      "Ġnear": 1861,
      "Ġnational": 1862,
      "ĠAn": 1863,
      "Ġinteresting": 1864,
      "Ġhours": 1865,
      "Ġbehind": 1866,
      "At": 1867,
      "Ġsus": 1868,
      "orney": 1869,
      "utes": 1870,
      "ird": 1871,
      "Ġwrit": 1872,
      "Ġphone": 1873,
      "ames": 1874,
      "Ġknows": 1875,
      "osp": 1876,
      "Ġ200": 1877,
      "Ġground": 1878,
      "Ġexample": 1879,
      "iec": 1880,
      "Ġpop": 1881,
      "Ġshort": 1882,
      "ĠHill": 1883,
      "Ġprop": 1884,
      "ries": 1885,
      "ploy": 1886,
      "Ġhalf": 1887,
      "ĠSec": 1888,
      "ĠDonald": 1889,
      "ĠFl": 1890,
      "ials": 1891,
      "uthor": 1892,
      "ĠSovi": 1893,
      "Ġfelt": 1894,
      "eb": 1895,
      "Ġinf": 1896,
      "Ġstates": 1897,
      "aps": 1898,
      "Ġeveryone": 1899,
      "Ġrunning": 1900,
      "Ġimmig": 1901,
      "Just": 1902,
      "Ġill": 1903,
      "retary": 1904,
      "Ġrespons": 1905,
      "Ġprotect": 1906,
      "Ġthreat": 1907,
      "Ġfe": 1908,
      "terday": 1909,
      "Ġspeak": 1910,
      "Ġmarket": 1911,
      "Ġhistory": 1912,
      "Look": 1913,
      "ery": 1914,
      "reet": 1915,
      "ased": 1916,
      "Ġdoct": 1917,
      "Ġmem": 1918,
      "Ġlives": 1919,
      "Ġalong": 1920,
      "Ġclass": 1921,
      "Ġdefense": 1922,
      "augh": 1923,
      "Ġwords": 1924,
      "Ġretur": 1925,
      "Did": 1926,
      "ional": 1927,
      "ĠOK": 1928,
      "ured": 1929,
      "Ġteam": 1930,
      "ibility": 1931,
      "ĠDemocratic": 1932,
      "lier": 1933,
      "Ġbasically": 1934,
      "Ġbomb": 1935,
      "Ġwhatever": 1936,
      "Ġvis": 1937,
      "Ġamong": 1938,
      "Ġfederal": 1939,
      "aut": 1940,
      "erry": 1941,
      "Ġhot": 1942,
      "arch": 1943,
      "Ġrequ": 1944,
      "sey": 1945,
      "Ġann": 1946,
      "echn": 1947,
      "Ġrad": 1948,
      "Ġabsolutely": 1949,
      "Ġserv": 1950,
      "Ġviol": 1951,
      "Ġfamilies": 1952,
      "yl": 1953,
      "ators": 1954,
      "Ġbur": 1955,
      "Ġcity": 1956,
      "Ġfather": 1957,
      "eth": 1958,
      "allen": 1959,
      "Ġearly": 1960,
      "Ġpriv": 1961,
      "aid": 1962,
      "aff": 1963,
      "ege": 1964,
      "reen": 1965,
      "Ġothers": 1966,
      "Ġobviously": 1967,
      "Ġinvolved": 1968,
      "Ġmur": 1969,
      "Ġpiec": 1970,
      "Ġface": 1971,
      "Ġdou": 1972,
      "Ġ15": 1973,
      "Ġclaim": 1974,
      "Ġpersonal": 1975,
      "Ġcontrol": 1976,
      "Ġhuman": 1977,
      "Ġtough": 1978,
      "Ġfig": 1979,
      "Ġgave": 1980,
      "Ġstep": 1981,
      "Ġvict": 1982,
      "Ġ30": 1983,
      "Ġwatching": 1984,
      "ĠMcC": 1985,
      "Ġdebate": 1986,
      "Ġpossible": 1987,
      "ĠIsrael": 1988,
      "reed": 1989,
      "Ġhon": 1990,
      "Ġcost": 1991,
      "Ġey": 1992,
      "ournal": 1993,
      "Ġrecent": 1994,
      "Ġtom": 1995,
      "Ġdied": 1996,
      "Ġgone": 1997,
      "enty": 1998,
      "Ġemb": 1999,
      "ĠKh": 2000,
      "rab": 2001,
      "Ġart": 2002,
      "CH": 2003,
      "Every": 2004,
      "SON": 2005,
      "ior": 2006,
      "Ġcent": 2007,
      "orth": 2008,
      "oming": 2009,
      "Ġequ": 2010,
      "Ġmemb": 2011,
      "ĠBar": 2012,
      "Ġmembers": 2013,
      "Ġfoc": 2014,
      "Ġfree": 2015,
      "ĠSouth": 2016,
      "Ġresult": 2017,
      "ished": 2018,
      "Ġposition": 2019,
      "Ġelection": 2020,
      "Ġgiven": 2021,
      "iate": 2022,
      "Ġcol": 2023,
      "Ġpar": 2024,
      "ĠSoviet": 2025,
      "Dr": 2026,
      "den": 2027,
      "ply": 2028,
      "Ġfund": 2029,
      "Ġbeaut": 2030,
      "Ġspe": 2031,
      "Ġlawy": 2032,
      "Ġconsid": 2033,
      "ised": 2034,
      "Ġrese": 2035,
      "oder": 2036,
      "aining": 2037,
      "ĠWar": 2038,
      "Ġphot": 2039,
      "Ġtechn": 2040,
      "Ġmention": 2041,
      "Ġgun": 2042,
      "Ġeither": 2043,
      "Ġappro": 2044,
      "Ġsuggest": 2045,
      "LL": 2046,
      "Some": 2047,
      "rect": 2048,
      "urs": 2049,
      "ield": 2050,
      "Ġseem": 2051,
      "Ġstandard": 2052,
      "Al": 2053,
      "Ch": 2054,
      "orter": 2055,
      "ecess": 2056,
      "ĠDo": 2057,
      "ĠGr": 2058,
      "Ġsometimes": 2059,
      "Ġyesterday": 2060,
      "attle": 2061,
      "Ġmovie": 2062,
      "91": 2063,
      "Sh": 2064,
      "ĠThis": 2065,
      "Ġhosp": 2066,
      "Ġbud": 2067,
      "orry": 2068,
      "Ġfut": 2069,
      "Ġnomin": 2070,
      "Ġsecurity": 2071,
      "ERT": 2072,
      "Unidentified": 2073,
      "fort": 2074,
      "pped": 2075,
      "Ġtrou": 2076,
      "earch": 2077,
      "Ġsaf": 2078,
      "unch": 2079,
      "Ġlevel": 2080,
      "Ġblack": 2081,
      "Ġsimply": 2082,
      "Ġleave": 2083,
      "ĠRomney": 2084,
      "levision": 2085,
      "ev": 2086,
      "ead": 2087,
      "pec": 2088,
      "ĠThat": 2089,
      "Ġeight": 2090,
      "aces": 2091,
      "ĠCo": 2092,
      "ĠCamb": 2093,
      "Ġdead": 2094,
      "Ġprison": 2095,
      "Ġbrought": 2096,
      "Ġgrow": 2097,
      "anger": 2098,
      "iety": 2099,
      "Mm": 2100,
      "aul": 2101,
      "ouge": 2102,
      "Ġben": 2103,
      "Ġtown": 2104,
      "ĠRouge": 2105,
      "Ġchallen": 2106,
      "Ġthemselves": 2107,
      "Ġhappy": 2108,
      "Ġspecial": 2109,
      "Ġcompany": 2110,
      "ĠGeorge": 2111,
      "Ġresearch": 2112,
      "Ġfuture": 2113,
      "ĠCambod": 2114,
      "Okay": 2115,
      "Ġhu": 2116,
      "Ġcreat": 2117,
      "Ġna": 2118,
      "Ġweap": 2119,
      "istan": 2120,
      "Ġchance": 2121,
      "ĠHar": 2122,
      "Ġneg": 2123,
      "ĠYes": 2124,
      "ĠKhmer": 2125,
      "Sen": 2126,
      "ael": 2127,
      "han": 2128,
      "Ġbillion": 2129,
      "Ġfav": 2130,
      "Ġfull": 2131,
      "Ġjud": 2132,
      "Ġtruth": 2133,
      "Ġprosec": 2134,
      "ĠTimes": 2135,
      "ugg": 2136,
      "velop": 2137,
      "Ġearlier": 2138,
      "ck": 2139,
      "Ġest": 2140,
      "isl": 2141,
      "Ġtot": 2142,
      "Ġstories": 2143,
      "room": 2144,
      "Ġtried": 2145,
      "Ġoutside": 2146,
      "rible": 2147,
      "Ġincre": 2148,
      "Ġhearing": 2149,
      "Ġreports": 2150,
      "Ġlegal": 2151,
      "Ġ201": 2152,
      "Ġsuccess": 2153,
      "Ġmurder": 2154,
      "People": 2155,
      "ane": 2156,
      "These": 2157,
      "ĠCNN": 2158,
      "Ġpolitics": 2159,
      "An": 2160,
      "cri": 2161,
      "ract": 2162,
      "ted": 2163,
      "Ġtro": 2164,
      "Ġap": 2165,
      "Ġnation": 2166,
      "Ġnecess": 2167,
      "Ġexc": 2168,
      "itting": 2169,
      "Ġfinally": 2170,
      "Ġminutes": 2171,
      "ology": 2172,
      "Ġbeginning": 2173,
      "ĠSupreme": 2174,
      "EN": 2175,
      "rest": 2176,
      "Ġhor": 2177,
      "itness": 2178,
      "ĠMan": 2179,
      "Ġpeace": 2180,
      "Ġdevelop": 2181,
      "aph": 2182,
      "Ġlooked": 2183,
      "Ġmusic": 2184,
      "BS": 2185,
      "ball": 2186,
      "onn": 2187,
      "Ġcred": 2188,
      "orce": 2189,
      "Ġforces": 2190,
      "resent": 2191,
      "ept": 2192,
      "Ġ50": 2193,
      "Ġclearly": 2194,
      "Ġopport": 2195,
      "Ġwonder": 2196,
      "Ġwalk": 2197,
      "arily": 2198,
      "ĠAt": 2199,
      "ĠGo": 2200,
      "ittee": 2201,
      "Ġtelevision": 2202,
      "br": 2203,
      "era": 2204,
      "Ġhur": 2205,
      "Ġce": 2206,
      "Ġcases": 2207,
      "Ġmain": 2208,
      "ĠPal": 2209,
      "Ġseeing": 2210,
      "Ġattorney": 2211,
      "Ġlegisl": 2212,
      "Ġentire": 2213,
      "Ġincluding": 2214,
      "IS": 2215,
      "rom": 2216,
      "Ġpot": 2217,
      "ĠIran": 2218,
      "Then": 2219,
      "Who": 2220,
      "mercial": 2221,
      "Ġevent": 2222,
      "Ġeconomic": 2223,
      "Ġris": 2224,
      "Ġvide": 2225,
      "ization": 2226,
      "Ġgener": 2227,
      "Ġcollege": 2228,
      "Ġcompanies": 2229,
      "20": 2230,
      "ric": 2231,
      "ruct": 2232,
      "Ġtyp": 2233,
      "itor": 2234,
      "iful": 2235,
      "ĠMiss": 2236,
      "Ġtrial": 2237,
      "Ġsold": 2238,
      "Ġproduct": 2239,
      "ĠJack": 2240,
      "Ġusing": 2241,
      "itted": 2242,
      "ĠUS": 2243,
      "OB": 2244,
      "enn": 2245,
      "Ġfall": 2246,
      "Ġshot": 2247,
      "Ġthinking": 2248,
      "Ġsocial": 2249,
      "Ġcomplete": 2250,
      "Ġtomorrow": 2251,
      "Ġbudget": 2252,
      "aur": 2253,
      "ients": 2254,
      "Ġwater": 2255,
      "Ġsell": 2256,
      "ones": 2257,
      "Ġhost": 2258,
      "itive": 2259,
      "Ġfail": 2260,
      "iday": 2261,
      "Ġjudge": 2262,
      "ĠAll": 2263,
      "Ġcond": 2264,
      "ĠPh": 2265,
      "apan": 2266,
      "wards": 2267,
      "Ġdrug": 2268,
      "Ġfavor": 2269,
      "50": 2270,
      "Ab": 2271,
      "uly": 2272,
      "Ġdest": 2273,
      "Ġnice": 2274,
      "Ġlight": 2275,
      "alif": 2276,
      "irc": 2277,
      "Ġliber": 2278,
      "Ġsoc": 2279,
      "Ġcharg": 2280,
      "arty": 2281,
      "ellig": 2282,
      "Ġways": 2283,
      "Ġwrote": 2284,
      "Ġinside": 2285,
      "Ġbegan": 2286,
      "arge": 2287,
      "ida": 2288,
      "Ġred": 2289,
      "Ġready": 2290,
      "Ġrul": 2291,
      "Ġliving": 2292,
      "Ġcompet": 2293,
      "Ġtelling": 2294,
      "Ġ199": 2295,
      "Ġpicture": 2296,
      "aughter": 2297,
      "Ġprivate": 2298,
      "Ġspeech": 2299,
      "igned": 2300,
      "Ġwithin": 2301,
      "ĠJust": 2302,
      "Ġneeds": 2303,
      "Ġsupposed": 2304,
      "Ġmessage": 2305,
      "Ġdollars": 2306,
      "Can": 2307,
      "To": 2308,
      "men": 2309,
      "inc": 2310,
      "Ġmiddle": 2311,
      "oss": 2312,
      "Ġsever": 2313,
      "Ġthousands": 2314,
      "Ġpiece": 2315,
      "Ġson": 2316,
      "Ġsorry": 2317,
      "rec": 2318,
      "Ġbir": 2319,
      "Ġfood": 2320,
      "Ġreform": 2321,
      "urance": 2322,
      "ĠBl": 2323,
      "ĠDep": 2324,
      "ĠTV": 2325,
      "ĠState": 2326,
      "Ġprep": 2327,
      "iversity": 2328,
      "stitution": 2329,
      "Ġexperience": 2330,
      "Ġimmigration": 2331,
      "Ġauthor": 2332,
      "Ġbase": 2333,
      "Ġocc": 2334,
      "Ġmag": 2335,
      "Ġdoc": 2336,
      "ĠSp": 2337,
      "Ġarea": 2338,
      "Ġrole": 2339,
      "ances": 2340,
      "Ġbuy": 2341,
      "Ġpassed": 2342,
      "DA": 2343,
      "President": 2344,
      "abl": 2345,
      "Ġaw": 2346,
      "itions": 2347,
      "eneral": 2348,
      "aster": 2349,
      "olks": 2350,
      "ĠJapan": 2351,
      "ĠKathy": 2352,
      "Ġhappening": 2353,
      "Ġwrite": 2354,
      "Ġlaws": 2355,
      "fric": 2356,
      "His": 2357,
      "rent": 2358,
      "Ġreact": 2359,
      "kend": 2360,
      "Ġant": 2361,
      "ĠAfric": 2362,
      "ains": 2363,
      "ĠNational": 2364,
      "Ġcancer": 2365,
      "Ġterm": 2366,
      "Ex": 2367,
      "Our": 2368,
      "ged": 2369,
      "Ġsearch": 2370,
      "orida": 2371,
      "Ġlarge": 2372,
      "Ġwhite": 2373,
      "Ġrece": 2374,
      "ĠCity": 2375,
      "urch": 2376,
      "Its": 2377,
      "Ġrights": 2378,
      "ivil": 2379,
      "Ġsingle": 2380,
      "pecially": 2381,
      "Ġseveral": 2382,
      "Go": 2383,
      "KAT": 2384,
      "haps": 2385,
      "ming": 2386,
      "ove": 2387,
      "erence": 2388,
      "oud": 2389,
      "atur": 2390,
      "Ġbab": 2391,
      "Ġdri": 2392,
      "Ġrather": 2393,
      "Ġjournal": 2394,
      "iles": 2395,
      "Ġsoon": 2396,
      "Ġsend": 2397,
      "Ġbeautiful": 2398,
      "ĠZ": 2399,
      "orb": 2400,
      "Ġnorm": 2401,
      "ality": 2402,
      "ĠPat": 2403,
      "ugust": 2404,
      "Ġshows": 2405,
      "Ġcorrect": 2406,
      "ĠThey": 2407,
      "aring": 2408,
      "ĠCap": 2409,
      "ulation": 2410,
      "ĠUnion": 2411,
      "Ġaccount": 2412,
      "Ġminute": 2413,
      "Ġquickly": 2414,
      "ID": 2415,
      "lt": 2416,
      "Ġav": 2417,
      "Ġfine": 2418,
      "Ġnon": 2419,
      "Ġgame": 2420,
      "icated": 2421,
      "ĠIm": 2422,
      "Ġasking": 2423,
      "aper": 2424,
      "Ġnobody": 2425,
      "Ġimag": 2426,
      "Ġlooks": 2427,
      "Ġprim": 2428,
      "avy": 2429,
      "Ġdifference": 2430,
      "Ġtaxes": 2431,
      "Ġvictim": 2432,
      "aliforn": 2433,
      "Ġbirth": 2434,
      "With": 2435,
      "lin": 2436,
      "Ġwitness": 2437,
      "Ġcre": 2438,
      "Ġokay": 2439,
      "orters": 2440,
      "Ġoften": 2441,
      "ĠSc": 2442,
      "Ġknown": 2443,
      "Ġpoll": 2444,
      "Ġscen": 2445,
      "Ġdecided": 2446,
      "Ġfeeling": 2447,
      "Ġfighting": 2448,
      "Ġchanged": 2449,
      "Ġconservative": 2450,
      "ĠFlorida": 2451,
      "hmm": 2452,
      "isc": 2453,
      "Ġfolks": 2454,
      "ara": 2455,
      "ache": 2456,
      "Ġstat": 2457,
      "ears": 2458,
      "Ġcoun": 2459,
      "Ġcountries": 2460,
      "Ġthanks": 2461,
      "Ġmeeting": 2462,
      "Ġannoun": 2463,
      "Ġweapons": 2464,
      "alifornia": 2465,
      "more": 2466,
      "ona": 2467,
      "Ġoh": 2468,
      "Ġpain": 2469,
      "ĠMed": 2470,
      "Ġchief": 2471,
      "ĠJr": 2472,
      "Ġanyone": 2473,
      "Ġattention": 2474,
      "Ġopin": 2475,
      "Ġaddress": 2476,
      "Ġlocal": 2477,
      "Ġfocus": 2478,
      "ault": 2479,
      "ges": 2480,
      "nect": 2481,
      "atives": 2482,
      "Ġcirc": 2483,
      "Ġmass": 2484,
      "Ġpull": 2485,
      "omes": 2486,
      "ĠParty": 2487,
      "itten": 2488,
      "ended": 2489,
      "ĠChina": 2490,
      "Ġcrime": 2491,
      "ails": 2492,
      "Ġplaying": 2493,
      "Ġpresent": 2494,
      "LEY": 2495,
      "Ġespecially": 2496,
      "Ġtroops": 2497,
      "Jo": 2498,
      "LI": 2499,
      "yn": 2500,
      "Ġbattle": 2501,
      "Ġdanger": 2502,
      "Ġshoot": 2503,
      "Ġ12": 2504,
      "Ġexpert": 2505,
      "ĠChar": 2506,
      "ogr": 2507,
      "ĠBrit": 2508,
      "Ġfigure": 2509,
      "now": 2510,
      "ĠInd": 2511,
      "Ġreach": 2512,
      "ĠCalifornia": 2513,
      "Ġrace": 2514,
      "ĠJim": 2515,
      "ĠFred": 2516,
      "Ġcommun": 2517,
      "Ġindust": 2518,
      "Ġgroups": 2519,
      "ĠRober": 2520,
      "Ġsuspect": 2521,
      "Ġhuge": 2522,
      "oon": 2523,
      "ature": 2524,
      "itch": 2525,
      "Ġdra": 2526,
      "idual": 2527,
      "ĠWill": 2528,
      "Ġeng": 2529,
      "Ġincred": 2530,
      "ully": 2531,
      "Ġgiving": 2532,
      "Ġmentioned": 2533,
      "any": 2534,
      "vert": 2535,
      "ĠAugust": 2536,
      "Ġconvers": 2537,
      "Ġrespect": 2538,
      "Ġletter": 2539,
      "Rep": 2540,
      "af": 2541,
      "mas": 2542,
      "ouch": 2543,
      "Ġbi": 2544,
      "Ġbody": 2545,
      "Ġfac": 2546,
      "Ġland": 2547,
      "ĠCON": 2548,
      "ify": 2549,
      "ĠSch": 2550,
      "ĠPaul": 2551,
      "Ġval": 2552,
      "Ġspent": 2553,
      "Ġadm": 2554,
      "Ġperhaps": 2555,
      "ensive": 2556,
      "Ġmedical": 2557,
      "ĠCarol": 2558,
      "Ġconcerned": 2559,
      "ĠMichael": 2560,
      "ĠCambodia": 2561,
      "ler": 2562,
      "Ġhop": 2563,
      "Ġball": 2564,
      "Ġcam": 2565,
      "ĠAN": 2566,
      "ĠAs": 2567,
      "Ġexec": 2568,
      "Ġ100": 2569,
      "Ġevening": 2570,
      "Ġvoters": 2571,
      "Ġindiv": 2572,
      "ĠDepartment": 2573,
      "Like": 2574,
      "Of": 2575,
      "bers": 2576,
      "oes": 2577,
      "Ġtakes": 2578,
      "ession": 2579,
      "ĠKing": 2580,
      "Ġpresidential": 2581,
      "Ġintern": 2582,
      "Ġweekend": 2583,
      "Ġinsurance": 2584,
      "Ġeffort": 2585,
      "Ġlearned": 2586,
      "Ġservice": 2587,
      "Ġopportunity": 2588,
      "orbache": 2589,
      "orbachev": 2590,
      "itiz": 2591,
      "Ġcause": 2592,
      "Ġdeep": 2593,
      "Ġheld": 2594,
      "amed": 2595,
      "Ġrid": 2596,
      "olution": 2597,
      "Ġcompl": 2598,
      "ground": 2599,
      "Ġjoining": 2600,
      "ĠRussia": 2601,
      "OBERT": 2602,
      "Ġindividual": 2603,
      "ED": 2604,
      "iation": 2605,
      "pond": 2606,
      "atic": 2607,
      "Ġcivil": 2608,
      "Ġlab": 2609,
      "uses": 2610,
      "Ġseven": 2611,
      "ĠChristmas": 2612,
      "AL": 2613,
      "Ġthird": 2614,
      "Ġsal": 2615,
      "isions": 2616,
      "iter": 2617,
      "Ġfur": 2618,
      "arr": 2619,
      "Ġrap": 2620,
      "Ġsuff": 2621,
      "Ġbecame": 2622,
      "Ġmyself": 2623,
      "ĠEd": 2624,
      "ĠSte": 2625,
      "ption": 2626,
      "Ġbiggest": 2627,
      "Ġbroad": 2628,
      "Ġilleg": 2629,
      "ĠCONLEY": 2630,
      "gs": 2631,
      "unt": 2632,
      "Ġaud": 2633,
      "Ġbord": 2634,
      "Ġmot": 2635,
      "ania": 2636,
      "Ġlat": 2637,
      "Ġactiv": 2638,
      "ences": 2639,
      "Ġ40": 2640,
      "Ġspending": 2641,
      "Ġsociety": 2642,
      "SH": 2643,
      "vent": 2644,
      "onic": 2645,
      "Ġcle": 2646,
      "Ġthats": 2647,
      "ĠNorth": 2648,
      "Ġperform": 2649,
      "Ġroad": 2650,
      "Ġcommon": 2651,
      "Ġdefin": 2652,
      "azing": 2653,
      "Ġofficials": 2654,
      "Ġdirector": 2655,
      "Ġterror": 2656,
      "ĠANDREA": 2657,
      "Com": 2658,
      "eed": 2659,
      "wo": 2660,
      "asons": 2661,
      "ĠGeneral": 2662,
      "riz": 2663,
      "Ġwilling": 2664,
      "Ġaction": 2665,
      "Ġworks": 2666,
      "Ġmoving": 2667,
      "ibly": 2668,
      "Ġhands": 2669,
      "Ġcontinues": 2670,
      "Ġlearn": 2671,
      "Ġ60": 2672,
      "Ġforeign": 2673,
      "Ġcurrent": 2674,
      "ĠHillary": 2675,
      "Ġdoub": 2676,
      "Ġbenef": 2677,
      "Ġpotent": 2678,
      "Im": 2679,
      "ĠĠĠčĊ": 2680,
      "ino": 2681,
      "Ġform": 2682,
      "Ġkey": 2683,
      "Ġstore": 2684,
      "ĠJer": 2685,
      "Ġ18": 2686,
      "Ġyourself": 2687,
      "ĠWest": 2688,
      "uclear": 2689,
      "Ġlonger": 2690,
      "Ġsexual": 2691,
      "Ġemploy": 2692,
      "Ġeduc": 2693,
      "Ġexplain": 2694,
      "Ġpictures": 2695,
      "By": 2696,
      "May": 2697,
      "work": 2698,
      "Ġaut": 2699,
      "Ġbank": 2700,
      "Ġlate": 2701,
      "oman": 2702,
      "Ġforce": 2703,
      "add": 2704,
      "ĠMark": 2705,
      "ĠPr": 2706,
      "Ġcheck": 2707,
      "Ġspoke": 2708,
      "ellow": 2709,
      "Ġseat": 2710,
      "ips": 2711,
      "Ġclos": 2712,
      "Ġwritten": 2713,
      "ission": 2714,
      "Ġstrate": 2715,
      "Does": 2716,
      "Ġsurv": 2717,
      "Ġmarried": 2718,
      "Ġtrouble": 2719,
      "Ġvideo": 2720,
      "Ġlatest": 2721,
      "fg": 2722,
      "ued": 2723,
      "Ġsir": 2724,
      "oday": 2725,
      "ulf": 2726,
      "une": 2727,
      "Ġcalls": 2728,
      "Ġkinds": 2729,
      "ogn": 2730,
      "Ġfinanc": 2731,
      "Ġregard": 2732,
      "ROBERT": 2733,
      "eff": 2734,
      "ole": 2735,
      "sy": 2736,
      "Ġfill": 2737,
      "ĠShe": 2738,
      "respond": 2739,
      "Ġpract": 2740,
      "ability": 2741,
      "ording": 2742,
      "Ġmarri": 2743,
      "Ġcandidate": 2744,
      "Ġreturn": 2745,
      "ĠMcCain": 2746,
      "Ġcele": 2747,
      "elligence": 2748,
      "Ġcreate": 2749,
      "11": 2750,
      "tain": 2751,
      "urop": 2752,
      "Ġ'": 2753,
      "orld": 2754,
      "Ġlif": 2755,
      "Ġrev": 2756,
      "Ġreasons": 2757,
      "Ġrac": 2758,
      "Ġlose": 2759,
      "Ġworse": 2760,
      "ĠGu": 2761,
      "Ġneeded": 2762,
      "Ġfinal": 2763,
      "Ġhospital": 2764,
      "Absolutely": 2765,
      "fully": 2766,
      "iam": 2767,
      "erm": 2768,
      "Ġdie": 2769,
      "Ġgon": 2770,
      "Ġdoor": 2771,
      "imate": 2772,
      "ĠAfg": 2773,
      "Ġprod": 2774,
      "Ġcomb": 2775,
      "Ġunc": 2776,
      "Ġbased": 2777,
      "Ġpatients": 2778,
      "Americ": 2779,
      "Hi": 2780,
      "ik": 2781,
      "Ġsitting": 2782,
      "itz": 2783,
      "Ġden": 2784,
      "Ġnuclear": 2785,
      "imp": 2786,
      "rove": 2787,
      "ĠArab": 2788,
      "ĠJuly": 2789,
      "Ġworth": 2790,
      "ĠTH": 2791,
      "ived": 2792,
      "Ġdisapp": 2793,
      "Ġrecogn": 2794,
      "Ġdefend": 2795,
      "Ġrepresent": 2796,
      "Ġwaiting": 2797,
      "Ġrisk": 2798,
      "reciate": 2799,
      "por": 2800,
      "Ġtour": 2801,
      "Ġbott": 2802,
      "ĠCol": 2803,
      "Ġran": 2804,
      "Ġjury": 2805,
      "Ġtrack": 2806,
      "ĠOn": 2807,
      "Ġ25": 2808,
      "ĠEurop": 2809,
      "Ġshowed": 2810,
      "Ġamazing": 2811,
      "Ġcommand": 2812,
      "Ġplayed": 2813,
      "Ġreported": 2814,
      "Ġcharac": 2815,
      "Ġinfl": 2816,
      "Ġbaby": 2817,
      "Ġopinion": 2818,
      "John": 2819,
      "bs": 2820,
      "fect": 2821,
      "iod": 2822,
      "ked": 2823,
      "pris": 2824,
      "Ġcra": 2825,
      "Ġpush": 2826,
      "Ġdaughter": 2827,
      "Ġlow": 2828,
      "Ġforget": 2829,
      "Ġtra": 2830,
      "Ġdev": 2831,
      "ĠFBI": 2832,
      "Ġcomput": 2833,
      "Ġgovernor": 2834,
      "ĠUniversity": 2835,
      "place": 2836,
      "Ġleadership": 2837,
      "Ġbuilding": 2838,
      "Ġhonest": 2839,
      "25": 2840,
      "First": 2841,
      "uce": 2842,
      "Ġitself": 2843,
      "ĠCBS": 2844,
      "the": 2845,
      "ĠMin": 2846,
      "ĠWorld": 2847,
      "Ġbrief": 2848,
      "Ġboard": 2849,
      "Ġdecide": 2850,
      "avan": 2851,
      "ELSON": 2852,
      "Ġhundreds": 2853,
      "nes": 2854,
      "rict": 2855,
      "ĠThere": 2856,
      "Ġwind": 2857,
      "Ġsour": 2858,
      "reg": 2859,
      "Ġpan": 2860,
      "Ġones": 2861,
      "Ġstri": 2862,
      "Ġstaff": 2863,
      "ĠAss": 2864,
      "Ġcomment": 2865,
      "Ġseemed": 2866,
      "izing": 2867,
      "Ġsurpris": 2868,
      "Ġdetect": 2869,
      "Ġcompletely": 2870,
      "Ġdoubt": 2871,
      "AM": 2872,
      "ST": 2873,
      "crib": 2874,
      "Ġther": 2875,
      "err": 2876,
      "Ġsong": 2877,
      "Ġcross": 2878,
      "Ġcitiz": 2879,
      "Ġmill": 2880,
      "key": 2881,
      "ĠCent": 2882,
      "irm": 2883,
      "ode": 2884,
      "ĠNELSON": 2885,
      "rying": 2886,
      "ude": 2887,
      "Ġadvert": 2888,
      "Ġarrest": 2889,
      "Ġcalling": 2890,
      "Ġperiod": 2891,
      "vernor": 2892,
      "Ġimagine": 2893,
      "OP": 2894,
      "ext": 2895,
      "mmer": 2896,
      "Ġhar": 2897,
      "ots": 2898,
      "Ġhair": 2899,
      "oper": 2900,
      "Ġtrust": 2901,
      "Ġlikely": 2902,
      "Ġsport": 2903,
      "Ġcrimin": 2904,
      "Ġstarting": 2905,
      "Ġcareer": 2906,
      "Ġimpact": 2907,
      "Ġconference": 2908,
      "Ġplane": 2909,
      "Ġresponsible": 2910,
      "Ġdestro": 2911,
      "ĠAfghan": 2912,
      "Her": 2913,
      "bor": 2914,
      "how": 2915,
      "ral": 2916,
      "Ġwish": 2917,
      "Ġdam": 2918,
      "aries": 2919,
      "ĠSy": 2920,
      "Ġabuse": 2921,
      "ests": 2922,
      "epend": 2923,
      "ĠYoder": 2924,
      "Ġaccept": 2925,
      "Ġteach": 2926,
      "Ġphys": 2927,
      "Ġnumbers": 2928,
      "Ġstudents": 2929,
      "Ġchanges": 2930,
      "Ġmarriage": 2931,
      "avanaugh": 2932,
      "10": 2933,
      "book": 2934,
      "ees": 2935,
      "ham": 2936,
      "ox": 2937,
      "ped": 2938,
      "Ġess": 2939,
      "Ġtouch": 2940,
      "Ġfix": 2941,
      "Ġconnect": 2942,
      "istic": 2943,
      "ĠKavanaugh": 2944,
      "ounded": 2945,
      "Ġanymore": 2946,
      "ancy": 2947,
      "exic": 2948,
      "Ġmajority": 2949,
      "Ġnormal": 2950,
      "ograph": 2951,
      "OM": 2952,
      "OW": 2953,
      "aud": 2954,
      "ker": 2955,
      "Ġide": 2956,
      "Ġwon": 2957,
      "Ġcell": 2958,
      "Ġoil": 2959,
      "aly": 2960,
      "aced": 2961,
      "ored": 2962,
      "ortion": 2963,
      "Ġlos": 2964,
      "empt": 2965,
      "Ġadop": 2966,
      "Ġguil": 2967,
      "icted": 2968,
      "Ġagreement": 2969,
      "Ġprovide": 2970,
      "Re": 2971,
      "cast": 2972,
      "off": 2973,
      "leased": 2974,
      "ently": 2975,
      "ĠJan": 2976,
      "ĠKu": 2977,
      "INE": 2978,
      "Ġcoverage": 2979,
      "Ġlawyer": 2980,
      "Ġten": 2981,
      "Ġtor": 2982,
      "Ġmis": 2983,
      "ĠIf": 2984,
      "ĠAm": 2985,
      "Welcome": 2986,
      "ceed": 2987,
      "ĠBro": 2988,
      "ĠPro": 2989,
      "ĠRich": 2990,
      "ĠHow": 2991,
      "Where": 2992,
      "Ġquote": 2993,
      "ago": 2994,
      "Ġamount": 2995,
      "Ġ198": 2996,
      "azine": 2997,
      "Ġoppos": 2998,
      "Ġgirls": 2999,
      "Ġparticularly": 3000,
      "Ġnearly": 3001,
      "Ġdoctor": 3002,
      "Ġnegot": 3003,
      "Ġnecessarily": 3004,
      "Ġcamera": 3005,
      "Ġexecut": 3006,
      "rizona": 3007,
      "ĠJersey": 3008,
      "Mc": 3009,
      "ires": 3010,
      "ule": 3011,
      "iting": 3012,
      "Ġpost": 3013,
      "Ġplease": 3014,
      "oph": 3015,
      "Ġtrip": 3016,
      "Ġtraged": 3017,
      "Ġdeli": 3018,
      "ĠJudge": 3019,
      "Ġboy": 3020,
      "Ġhelped": 3021,
      "Ġreality": 3022,
      "Ġvotes": 3023,
      "ĠBrown": 3024,
      "Ġsimple": 3025,
      "Ġmovement": 3026,
      "Ġeditor": 3027,
      "Ġfunny": 3028,
      "Ġraise": 3029,
      "Ġtreatment": 3030,
      "Ġhurt": 3031,
      "Ġanti": 3032,
      "Ġclean": 3033,
      "14": 3034,
      "ging": 3035,
      "uel": 3036,
      "Ġought": 3037,
      "Ġpaid": 3038,
      "Ġnet": 3039,
      "iding": 3040,
      "verage": 3041,
      "Ġdog": 3042,
      "iron": 3043,
      "pping": 3044,
      "Ġvol": 3045,
      "Ġimmed": 3046,
      "oods": 3047,
      "Ġcris": 3048,
      "Ġdecisions": 3049,
      "Ġalleged": 3050,
      "ĠSecretary": 3051,
      "Ġcenter": 3052,
      "Commercial": 3053,
      "Have": 3054,
      "Judge": 3055,
      "Or": 3056,
      "TI": 3057,
      "aith": 3058,
      "lf": 3059,
      "Ġpur": 3060,
      "anan": 3061,
      "ety": 3062,
      "Those": 3063,
      "Ġwelcome": 3064,
      "ster": 3065,
      "ĠRight": 3066,
      "Ġloved": 3067,
      "Ġsuper": 3068,
      "epar": 3069,
      "Ġseason": 3070,
      "Ġbrother": 3071,
      "Ġputting": 3072,
      "ĠJoe": 3073,
      "Ġterrible": 3074,
      "Ġpolitic": 3075,
      "Ġleader": 3076,
      "ĠJustice": 3077,
      "Ġdocument": 3078,
      "Ġindustry": 3079,
      "ĠSteve": 3080,
      "sych": 3081,
      ":...": 3082,
      "Any": 3083,
      "ding": 3084,
      "ĠQ": 3085,
      "Ġident": 3086,
      "Ġwal": 3087,
      "Ġsat": 3088,
      "Ġsepar": 3089,
      "Ġbed": 3090,
      "Ġbar": 3091,
      "Ġinn": 3092,
      "str": 3093,
      "ĠArizona": 3094,
      "ĠPeter": 3095,
      "ĠDay": 3096,
      "ĠEx": 3097,
      "Ġblood": 3098,
      "Ġ197": 3099,
      "Ġrespond": 3100,
      "Ġargument": 3101,
      "Ġwriting": 3102,
      "Ġdoctors": 3103,
      "Ġreaction": 3104,
      "ĠBritish": 3105,
      "After": 3106,
      "GE": 3107,
      "dden": 3108,
      "ray": 3109,
      "Ġpers": 3110,
      "amm": 3111,
      "ament": 3112,
      "Ġmeant": 3113,
      "Ġsudden": 3114,
      "ĠGorbachev": 3115,
      "ume": 3116,
      "Ġ11": 3117,
      "Ġbrain": 3118,
      "Ġdisag": 3119,
      "Ġgrand": 3120,
      "Ġroll": 3121,
      "Ġserve": 3122,
      "Ġdescrib": 3123,
      "Ġcorrespond": 3124,
      "Ġelected": 3125,
      "ĠIraqi": 3126,
      "Ġdemand": 3127,
      "Ġeasy": 3128,
      "Ġrules": 3129,
      "ĠAfrican": 3130,
      "Ġdestroy": 3131,
      "30": 3132,
      "PR": 3133,
      "UN": 3134,
      "UR": 3135,
      "elect": 3136,
      "iers": 3137,
      "time": 3138,
      "zy": 3139,
      "Ġfoot": 3140,
      "arry": 3141,
      "Ġlower": 3142,
      "icago": 3143,
      "lement": 3144,
      "ĠSund": 3145,
      "ĠMexic": 3146,
      "estin": 3147,
      "que": 3148,
      "iving": 3149,
      "uchanan": 3150,
      "ught": 3151,
      "Ġappreciate": 3152,
      "Ġeyes": 3153,
      "Ġtechnology": 3154,
      "Ġsafe": 3155,
      "ĠGovernor": 3156,
      "Ġmagazine": 3157,
      "Ġconversation": 3158,
      "Ġfurther": 3159,
      "ĠSunday": 3160,
      "Sure": 3161,
      "ium": 3162,
      "Ġvers": 3163,
      "Ġaf": 3164,
      "Ġsite": 3165,
      "Ġsister": 3166,
      "ened": 3167,
      "asing": 3168,
      "icle": 3169,
      "Ġforth": 3170,
      "stant": 3171,
      "alled": 3172,
      "Ġrate": 3173,
      "Ġ16": 3174,
      "Ġplaces": 3175,
      "ression": 3176,
      "ĠEast": 3177,
      "ĠChicago": 3178,
      "Ġaccident": 3179,
      "Ġvoted": 3180,
      "Ġviolence": 3181,
      "Ġlegislation": 3182,
      "impson": 3183,
      "ĠSyri": 3184,
      "From": 3185,
      "OL": 3186,
      "Your": 3187,
      "entle": 3188,
      "igan": 3189,
      "ĠMike": 3190,
      "Ġwhose": 3191,
      "ĠFor": 3192,
      "Thats": 3193,
      "Ġbackground": 3194,
      "Ġgotten": 3195,
      "Ġpray": 3196,
      "Ġcaught": 3197,
      "Ġcrash": 3198,
      "Ġmoved": 3199,
      "Ġflo": 3200,
      "ropri": 3201,
      "Ġinstead": 3202,
      "Ġfeet": 3203,
      "Ġcharges": 3204,
      "eet": 3205,
      "wood": 3206,
      "read": 3207,
      "itter": 3208,
      "Ġmiles": 3209,
      "Ġfear": 3210,
      "Ġluck": 3211,
      "omp": 3212,
      "let": 3213,
      "Ġrelie": 3214,
      "Ġstage": 3215,
      "ĠMay": 3216,
      "ĠDan": 3217,
      "Ġprogress": 3218,
      "ulations": 3219,
      "Ġdel": 3220,
      "eagan": 3221,
      "Ġalone": 3222,
      "ĠTom": 3223,
      "ĠWall": 3224,
      "bling": 3225,
      "Ġcontrib": 3226,
      "Ġenf": 3227,
      "Ġaccess": 3228,
      "airs": 3229,
      "Ġspeaking": 3230,
      "ĠRussian": 3231,
      "Ġfilm": 3232,
      "reedom": 3233,
      "Ġborder": 3234,
      "Ġcelebr": 3235,
      "Ġcharacter": 3236,
      "Ġtragedy": 3237,
      "ein": 3238,
      "each": 3239,
      "gment": 3240,
      "oard": 3241,
      "sc": 3242,
      "wait": 3243,
      "Ġsides": 3244,
      "Ġmid": 3245,
      "Ġnine": 3246,
      "usion": 3247,
      "Ġkept": 3248,
      "irt": 3249,
      "ĠMos": 3250,
      "urg": 3251,
      "ction": 3252,
      "Ġtraining": 3253,
      "Ġcho": 3254,
      "ĠKING": 3255,
      "Ġintelligence": 3256,
      "Ġ24": 3257,
      "Ġperfect": 3258,
      "Ġseries": 3259,
      "Ġremark": 3260,
      "Ġended": 3261,
      "Ġpressure": 3262,
      "Ġcharge": 3263,
      "Ġsenior": 3264,
      "Ġskin": 3265,
      "Ġlimits": 3266,
      "Ġmember": 3267,
      "ylv": 3268,
      "Ġchallenge": 3269,
      "Ġincredible": 3270,
      "Ġcrisis": 3271,
      "uing": 3272,
      "Ġtem": 3273,
      "erve": 3274,
      "Ġlines": 3275,
      "icine": 3276,
      "owd": 3277,
      "Ġhell": 3278,
      "Ġstra": 3279,
      "Ġconc": 3280,
      "Ġcongress": 3281,
      "ĠPen": 3282,
      "Ġexcept": 3283,
      "elf": 3284,
      "raid": 3285,
      "Ġenv": 3286,
      "Ġappear": 3287,
      "Ġsecret": 3288,
      "Ġdefic": 3289,
      "Ġreporters": 3290,
      "Ġofficer": 3291,
      "exas": 3292,
      "Ġcapital": 3293,
      "Ġprofess": 3294,
      "Ġconsider": 3295,
      "Ġestabl": 3296,
      "ĠCarolina": 3297,
      "Ġcomputer": 3298,
      "ĠKuwait": 3299,
      "CE": 3300,
      "pir": 3301,
      "ats": 3302,
      "Ġfly": 3303,
      "arah": 3304,
      "Ġliter": 3305,
      "Ġstreet": 3306,
      "ades": 3307,
      "tha": 3308,
      "ĠMass": 3309,
      "ĠPost": 3310,
      "Ġchoice": 3311,
      "ively": 3312,
      "Ġspok": 3313,
      "itely": 3314,
      "Ġenc": 3315,
      "Ġbigger": 3316,
      "Ġstanding": 3317,
      "Ġofficers": 3318,
      "ĠArmy": 3319,
      "Ġliberal": 3320,
      "Ġillegal": 3321,
      "Ġdisagree": 3322,
      "Ġafraid": 3323,
      "cil": 3324,
      "gin": 3325,
      "hood": 3326,
      "erman": 3327,
      "Ġborn": 3328,
      "Ġdro": 3329,
      "Ġdad": 3330,
      "arl": 3331,
      "Ġbel": 3332,
      "iger": 3333,
      "imony": 3334,
      "irgin": 3335,
      "Ġult": 3336,
      "Ġconduct": 3337,
      "ĠReagan": 3338,
      "eag": 3339,
      "els": 3340,
      "ĠStreet": 3341,
      "iction": 3342,
      "Ġtells": 3343,
      "Ġthrow": 3344,
      "Ġfacts": 3345,
      "overed": 3346,
      "Ġemot": 3347,
      "Ġcontrovers": 3348,
      "Ġdepend": 3349,
      "Ġcritical": 3350,
      "Ġradio": 3351,
      "Ġapproach": 3352,
      "Ġcreated": 3353,
      "Ġprosecut": 3354,
      "Ġtotally": 3355,
      "ĠJapanese": 3356,
      "ĠRobert": 3357,
      "Ġpotential": 3358,
      "13": 3359,
      "Even": 3360,
      "avi": 3361,
      "uments": 3362,
      "Ġz": 3363,
      "Ġcas": 3364,
      "Ġnamed": 3365,
      "Ġled": 3366,
      "alse": 3367,
      "Ġonline": 3368,
      "Ġtheyre": 3369,
      "ĠPol": 3370,
      "Ġjustice": 3371,
      "Ġsummer": 3372,
      "Ġsave": 3373,
      "ĠTed": 3374,
      "akistan": 3375,
      "ĠEl": 3376,
      "Ġapparent": 3377,
      "Ġindepend": 3378,
      "Ġpaying": 3379,
      "Ġjoined": 3380,
      "Ġaffect": 3381,
      "Ġresults": 3382,
      "Ġwonderful": 3383,
      "ĠPalestin": 3384,
      "Ġvictims": 3385,
      "Maybe": 3386,
      "ĠAfghanistan": 3387,
      "Ġguilty": 3388,
      "co": 3389,
      "iated": 3390,
      "uh": 3391,
      "Ġtape": 3392,
      "ination": 3393,
      "Ġhol": 3394,
      "Ġhate": 3395,
      "nda": 3396,
      "inger": 3397,
      "Ġpaper": 3398,
      "asure": 3399,
      "Ġlarg": 3400,
      "leg": 3401,
      "rod": 3402,
      "ador": 3403,
      "adies": 3404,
      "term": 3405,
      "ĠMon": 3406,
      "ilar": 3407,
      "ĠPark": 3408,
      "ĠJeff": 3409,
      "Ġsomehow": 3410,
      "Ġ14": 3411,
      "ressed": 3412,
      "Ġarms": 3413,
      "Ġbelieves": 3414,
      "Ġrock": 3415,
      "Ġdetails": 3416,
      "Ġpolicies": 3417,
      "ĠCommittee": 3418,
      "Ġdangerous": 3419,
      "Ġaudience": 3420,
      "Ġfinancial": 3421,
      "Ġessent": 3422,
      "Cl": 3423,
      "UD": 3424,
      "au": 3425,
      "iately": 3426,
      "uit": 3427,
      "yond": 3428,
      "inter": 3429,
      "erc": 3430,
      "Ġpsych": 3431,
      "Ġdi": 3432,
      "Ġlay": 3433,
      "Ġgentle": 3434,
      "Ġbeyond": 3435,
      "Ġemer": 3436,
      "ift": 3437,
      "irty": 3438,
      "Ġworry": 3439,
      "ĠTexas": 3440,
      "ager": 3441,
      "ĠYO": 3442,
      "Ġreporting": 3443,
      "like": 3444,
      "Ġdealing": 3445,
      "Ġdrive": 3446,
      "Ġveter": 3447,
      "Ġexpected": 3448,
      "ĠMichigan": 3449,
      "Also": 3450,
      "Ġcredit": 3451,
      "Ġcriminal": 3452,
      "Ġlosing": 3453,
      "ironment": 3454,
      "bed": 3455,
      "yan": 3456,
      "ze": 3457,
      "Ġtable": 3458,
      "Ġtoward": 3459,
      "Ġpil": 3460,
      "Ġdream": 3461,
      "ille": 3462,
      "Ġrape": 3463,
      "ĠMs": 3464,
      "ilt": 3465,
      "Ġvar": 3466,
      "astic": 3467,
      "Hey": 3468,
      "Ġworkers": 3469,
      "Ġener": 3470,
      "Ġappl": 3471,
      "Ġaccused": 3472,
      "Ġleading": 3473,
      "olly": 3474,
      "Ġtestimony": 3475,
      "Ġconcern": 3476,
      "Ġraised": 3477,
      "Ġcandidates": 3478,
      "Ġclaims": 3479,
      "Ġphoto": 3480,
      "fortun": 3481,
      "Ġsoldiers": 3482,
      "KATIE": 3483,
      "Ġmillions": 3484,
      "EE": 3485,
      "ICH": 3486,
      "Today": 3487,
      "Was": 3488,
      "Were": 3489,
      "Ġaverage": 3490,
      "rey": 3491,
      "ises": 3492,
      "Ġpage": 3493,
      "Ġfield": 3494,
      "Ġfalse": 3495,
      "icking": 3496,
      "ette": 3497,
      "lyn": 3498,
      "ada": 3499,
      "Ġabortion": 3500,
      "ĠBer": 3501,
      "ĠPakistan": 3502,
      "ĠNow": 3503,
      "Ġupon": 3504,
      "Ġneigh": 3505,
      "ankly": 3506,
      "Ġenem": 3507,
      "ĠChris": 3508,
      "Ġcrowd": 3509,
      "Ġscreen": 3510,
      "Ġfamous": 3511,
      "Ġconfl": 3512,
      "Ġobject": 3513,
      "Ġelections": 3514,
      "Ġstudy": 3515,
      "rupt": 3516,
      "Ġcuts": 3517,
      "ĠFriday": 3518,
      "Ġvisit": 3519,
      "Ġrecently": 3520,
      "Ġproduc": 3521,
      "ĠRichard": 3522,
      "Ġimmediately": 3523,
      "hold": 3524,
      "lant": 3525,
      "ined": 3526,
      "itals": 3527,
      "Ġcal": 3528,
      "Ġcult": 3529,
      "Ġopt": 3530,
      "Ġmist": 3531,
      "asc": 3532,
      "ask": 3533,
      "Ġgas": 3534,
      "aching": 3535,
      "ĠAb": 3536,
      "ĠGl": 3537,
      "umb": 3538,
      "ards": 3539,
      "assador": 3540,
      "Ġdisp": 3541,
      "Ġwarning": 3542,
      "Ġsecretary": 3543,
      "Ġstrugg": 3544,
      "Ġimprove": 3545,
      "Ġflight": 3546,
      "ocked": 3547,
      "Ġassault": 3548,
      "Ġsubject": 3549,
      "Ġslow": 3550,
      "Ġholding": 3551,
      "prise": 3552,
      "Ġallowed": 3553,
      "Ġsounds": 3554,
      "ĠBobby": 3555,
      "Ġdiscussion": 3556,
      "ĠBarack": 3557,
      "Ġlawyers": 3558,
      "Ġprosecution": 3559,
      "Ġtotal": 3560,
      "ĠMedic": 3561,
      "ĠIndian": 3562,
      "Ġeducation": 3563,
      "Ġinflu": 3564,
      "15": 3565,
      "noon": 3566,
      "set": 3567,
      "uary": 3568,
      "ville": 3569,
      "Ġsle": 3570,
      "Ġbag": 3571,
      "Ġple": 3572,
      "ication": 3573,
      "Ġbeat": 3574,
      "Ġreleased": 3575,
      "imately": 3576,
      "Ġund": 3577,
      "Ġlived": 3578,
      "Ġthinks": 3579,
      "ĠBuchanan": 3580,
      "ĠPres": 3581,
      "Ġtrad": 3582,
      "Ġtruck": 3583,
      "eared": 3584,
      "ĠGood": 3585,
      "ounds": 3586,
      "berg": 3587,
      "ipl": 3588,
      "Ġafternoon": 3589,
      "Ġappoint": 3590,
      "Ġthroughout": 3591,
      "Ġ196": 3592,
      "Ġrelig": 3593,
      "Ġstopped": 3594,
      "Ġspecific": 3595,
      "Ġextra": 3596,
      "Ġattacks": 3597,
      "ĠIntern": 3598,
      "Ġfollowing": 3599,
      "Ġrequire": 3600,
      "Ġeye": 3601,
      "Senator": 3602,
      "Ġtype": 3603,
      "Ġavail": 3604,
      "Ġcitizens": 3605,
      "Ġenvironment": 3606,
      "12": 3607,
      "19": 3608,
      "IA": 3609,
      "racy": 3610,
      "Ġaid": 3611,
      "Ġswe": 3612,
      "Ġbal": 3613,
      "Ġmod": 3614,
      "etts": 3615,
      "Ġstre": 3616,
      "Ġworst": 3617,
      "ung": 3618,
      "ĠKore": 3619,
      "aging": 3620,
      "Ġproud": 3621,
      "Ġcommittee": 3622,
      "Ġattempt": 3623,
      "Ġcollect": 3624,
      "Ġaddition": 3625,
      "Ġprior": 3626,
      "Ġadvis": 3627,
      "ĠConley": 3628,
      "Ġveh": 3629,
      "Ġlistening": 3630,
      "ĠJackie": 3631,
      "Ġscene": 3632,
      "ĠTHE": 3633,
      "Ġsports": 3634,
      "Ġstraight": 3635,
      "DER": 3636,
      "IG": 3637,
      "Somet": 3638,
      "do": 3639,
      "gency": 3640,
      "mp": 3641,
      "ores": 3642,
      "Ġsan": 3643,
      "Ġsad": 3644,
      "Ġban": 3645,
      "Ġfreedom": 3646,
      "Ġdin": 3647,
      "igin": 3648,
      "Ġstation": 3649,
      "opp": 3650,
      "ĠAct": 3651,
      "Ġprove": 3652,
      "ĠNAT": 3653,
      "Ġparts": 3654,
      "ĠVirgin": 3655,
      "Ġscand": 3656,
      "airman": 3657,
      "Ġinterested": 3658,
      "ĠCongressman": 3659,
      "Ġopened": 3660,
      "Ġdistrict": 3661,
      "Ġcritic": 3662,
      "Ġallegations": 3663,
      "Ġpopular": 3664,
      "cribe": 3665,
      "Ġbottom": 3666,
      "ĠEurope": 3667,
      "Ġcrazy": 3668,
      "Ġadvertising": 3669,
      "Ġinnoc": 3670,
      "NA": 3671,
      "OX": 3672,
      "Ob": 3673,
      "Very": 3674,
      "ai": 3675,
      "een": 3676,
      "Ġir": 3677,
      "Ġsick": 3678,
      "Ġself": 3679,
      "Ġfired": 3680,
      "Ġnatur": 3681,
      "Ġyoure": 3682,
      "uster": 3683,
      "ĠCan": 3684,
      "Ġur": 3685,
      "ĠMitt": 3686,
      "Ġlie": 3687,
      "Ġorigin": 3688,
      "ĠHamp": 3689,
      "ĠNPR": 3690,
      "ĠJones": 3691,
      "Ġworried": 3692,
      "Ġtwenty": 3693,
      "Ġincident": 3694,
      "Ġpoints": 3695,
      "Ġrealize": 3696,
      "Ġaccording": 3697,
      "Ġindeed": 3698,
      "ilities": 3699,
      "Ġopposed": 3700,
      "Ġspecif": 3701,
      "Ġprograms": 3702,
      "Ġconservatives": 3703,
      "Ġincrease": 3704,
      "Ġprimary": 3705,
      "Ġcircum": 3706,
      "American": 3707,
      "Ġtravel": 3708,
      "iplom": 3709,
      "Ġavailable": 3710,
      "Ag": 3711,
      "go": 3712,
      "joy": 3713,
      "oid": 3714,
      "Ġ#": 3715,
      "ening": 3716,
      "Ġcream": 3717,
      "Ġmoder": 3718,
      "Ġinj": 3719,
      "Ġla": 3720,
      "Ġlack": 3721,
      "ications": 3722,
      "ows": 3723,
      "Ġstar": 3724,
      "ston": 3725,
      "ĠSH": 3726,
      "Ġshare": 3727,
      "Ġjump": 3728,
      "though": 3729,
      "ĠMo": 3730,
      "Ġtrade": 3731,
      "Ġord": 3732,
      "Ġproject": 3733,
      "Ġdeg": 3734,
      "ĠJames": 3735,
      "Ġ17": 3736,
      "Ġagreed": 3737,
      "elts": 3738,
      "Ġarch": 3739,
      "Ġprice": 3740,
      "Ġcook": 3741,
      "Ġrecomm": 3742,
      "Ġremind": 3743,
      "uesday": 3744,
      "anced": 3745,
      "Ġearth": 3746,
      "Ġschools": 3747,
      "Ġviews": 3748,
      "Ġagenda": 3749,
      "Ġorganization": 3750,
      "Ġresponsibility": 3751,
      "Ġnominee": 3752,
      "Ġsuccessful": 3753,
      "Ġmassive": 3754,
      "ĠWilliam": 3755,
      "Ġpurp": 3756,
      "Ġwalking": 3757,
      "Ġcorrespondent": 3758,
      "Ġessentially": 3759,
      "eltsin": 3760,
      "Kennedy": 3761,
      "back": 3762,
      "cow": 3763,
      "eated": 3764,
      "fact": 3765,
      "gth": 3766,
      "ober": 3767,
      "wight": 3768,
      "Ġsigned": 3769,
      "itude": 3770,
      "Ġtowards": 3771,
      "Ġmater": 3772,
      "ett": 3773,
      "utions": 3774,
      "umn": 3775,
      "raham": 3776,
      "agon": 3777,
      "Ġeverywhere": 3778,
      "Ġoffer": 3779,
      "Ġcooper": 3780,
      "Ġparties": 3781,
      "Ġdise": 3782,
      "Ġprec": 3783,
      "Ġamb": 3784,
      "Ġsett": 3785,
      "Ġdeter": 3786,
      "Ġpowerful": 3787,
      "Ġhistor": 3788,
      "Ġstandards": 3789,
      "Ġnomination": 3790,
      "Ġfavorite": 3791,
      "Ġannounced": 3792,
      "Ġshooting": 3793,
      "Ġdefinitely": 3794,
      "Ġstrategy": 3795,
      "Really": 3796,
      "Ġexecutive": 3797,
      "ĠMoscow": 3798,
      "Ġenergy": 3799,
      "Two": 3800,
      "wise": 3801,
      "Ġtens": 3802,
      "Ġcust": 3803,
      "Ġmach": 3804,
      "Ġpack": 3805,
      "Ġpun": 3806,
      "anch": 3807,
      "Ġfast": 3808,
      "uty": 3809,
      "iggs": 3810,
      "ĠJud": 3811,
      "ĠTuesday": 3812,
      "ĠFoot": 3813,
      "ĠLos": 3814,
      "Ġcoup": 3815,
      "Ġadult": 3816,
      "ANINE": 3817,
      "Ġtalks": 3818,
      "Ġpred": 3819,
      "Ġshowing": 3820,
      "Ġserved": 3821,
      "Ġstudent": 3822,
      "Ġdebt": 3823,
      "shire": 3824,
      "Ġcovered": 3825,
      "Ġconcerns": 3826,
      "Ġesc": 3827,
      "onna": 3828,
      "Ġstatus": 3829,
      "Ġinternational": 3830,
      "ĠMexico": 3831,
      "Ġconflict": 3832,
      "ĠHampshire": 3833,
      "Most": 3834,
      "Take": 3835,
      "rants": 3836,
      "yle": 3837,
      "zz": 3838,
      "Ġtend": 3839,
      "ishing": 3840,
      "esse": 3841,
      "Ġdon": 3842,
      "Ġinit": 3843,
      "aron": 3844,
      "Ġge": 3845,
      "ĠCor": 3846,
      "Ġconstitution": 3847,
      "ĠRe": 3848,
      "Ġherself": 3849,
      "Ġourselves": 3850,
      "Ġarri": 3851,
      "ĠEng": 3852,
      "Ġaccus": 3853,
      "Ġminor": 3854,
      "Ġbreast": 3855,
      "Ġbooks": 3856,
      "Ġofficial": 3857,
      "Ġinstit": 3858,
      "ĠAnge": 3859,
      "Ġgrowing": 3860,
      "aura": 3861,
      "Ġprepared": 3862,
      "IDEN": 3863,
      "Ġideas": 3864,
      "Ġenforce": 3865,
      "Ġdeficit": 3866,
      "Ġapparently": 3867,
      "ĠMonday": 3868,
      "ĠVirginia": 3869,
      "24": 3870,
      "Amb": 3871,
      "Hm": 3872,
      "Pro": 3873,
      "Would": 3874,
      "kes": 3875,
      "nie": 3876,
      "ps": 3877,
      "Ġsqu": 3878,
      "Ġhomes": 3879,
      "Ġwhom": 3880,
      "ota": 3881,
      "igher": 3882,
      "Ġste": 3883,
      "Ġang": 3884,
      "ĠSarah": 3885,
      "Ġrich": 3886,
      "that": 3887,
      "Ġknowing": 3888,
      "Ġfrust": 3889,
      "Ġfrankly": 3890,
      "ĠBe": 3891,
      "Ġcomfort": 3892,
      "Ġloss": 3893,
      "ĠGulf": 3894,
      "ĠLe": 3895,
      "Ġtweet": 3896,
      "Ġcool": 3897,
      "asey": 3898,
      "Ġpoison": 3899,
      "Ġcommitted": 3900,
      "angu": 3901,
      "Ġfeels": 3902,
      "Ġobs": 3903,
      "Ġjoins": 3904,
      "Ġdepartment": 3905,
      "Ġbroke": 3906,
      "Ġhorr": 3907,
      "Ġhorrible": 3908,
      "Ġeventually": 3909,
      "incip": 3910,
      "Ġreceived": 3911,
      "ropriate": 3912,
      "Ġrelief": 3913,
      "04": 3914,
      "58": 3915,
      "Be": 3916,
      "Bill": 3917,
      "Tr": 3918,
      "Wow": 3919,
      "mark": 3920,
      "pro": 3921,
      "val": 3922,
      "Ġsil": 3923,
      "Ġsens": 3924,
      "ata": 3925,
      "Ġhous": 3926,
      "Ġmatch": 3927,
      "Ġfake": 3928,
      "usetts": 3929,
      "rog": 3930,
      "ills": 3931,
      "ĠSer": 3932,
      "Ġchurch": 3933,
      "ĠHolly": 3934,
      "ĠJon": 3935,
      "hern": 3936,
      "Ġexist": 3937,
      "ĠFord": 3938,
      "apol": 3939,
      "ĠLa": 3940,
      "ival": 3941,
      "Ġcold": 3942,
      "Ġclosed": 3943,
      "Ġpoor": 3944,
      "achusetts": 3945,
      "Ġscient": 3946,
      "rench": 3947,
      "Ġaccur": 3948,
      "Ġpositive": 3949,
      "Ġsurprise": 3950,
      "ĠObam": 3951,
      "Ġdrink": 3952,
      "Ġraising": 3953,
      "Ġseriously": 3954,
      "cript": 3955,
      "Ġsurprised": 3956,
      "ĠFootage": 3957,
      "98": 3958,
      "ES": 3959,
      "RA": 3960,
      "Sec": 3961,
      "Vice": 3962,
      "lim": 3963,
      "pre": 3964,
      "yal": 3965,
      "atal": 3966,
      "Ġcop": 3967,
      "Ġment": 3968,
      "Ġpen": 3969,
      "Ġfem": 3970,
      "Ġfaith": 3971,
      "Ġgather": 3972,
      "icate": 3973,
      "ros": 3974,
      "Ġanaly": 3975,
      "ĠSam": 3976,
      "ĠSand": 3977,
      "Ġship": 3978,
      "urb": 3979,
      "ural": 3980,
      "istance": 3981,
      "ĠNE": 3982,
      "Ġexam": 3983,
      "ĠWoman": 3984,
      "Ġenjoy": 3985,
      "ANA": 3986,
      "Ġwatched": 3987,
      "ological": 3988,
      "Ġpossibility": 3989,
      "ĠVietnamese": 3990,
      "IED": 3991,
      "Ġtreated": 3992,
      "Ġafford": 3993,
      "Ġapart": 3994,
      "Ġwalked": 3995,
      "Ġselling": 3996,
      "Ġfailed": 3997,
      "Exactly": 3998,
      "ĠCharles": 3999,
      "Ġrevolution": 4000,
      "ĠJanuary": 4001,
      "Ġholiday": 4002,
      "Ġstreets": 4003,
      "Ġinnocent": 4004,
      "35": 4005,
      "Bush": 4006,
      "FIED": 4007,
      "More": 4008,
      "com": 4009,
      "Ġtarg": 4010,
      "Ġsect": 4011,
      "Ġhigher": 4012,
      "Ġmine": 4013,
      "Ġfant": 4014,
      "arian": 4015,
      "Ġgrew": 4016,
      "omen": 4017,
      "Ġeat": 4018,
      "outhern": 4019,
      "iring": 4020,
      "Ġshes": 4021,
      "Ġability": 4022,
      "ĠMor": 4023,
      "ĠPet": 4024,
      "ctions": 4025,
      "ĠNations": 4026,
      "ĠJean": 4027,
      "Ġsup": 4028,
      "Ġalive": 4029,
      "ĠGOP": 4030,
      "aren": 4031,
      "Ġplans": 4032,
      "ĠLet": 4033,
      "Ġprices": 4034,
      "Ġprincip": 4035,
      "Ġunfortun": 4036,
      "endment": 4037,
      "Ġprem": 4038,
      "upid": 4039,
      "Ġminister": 4040,
      "Ġreporter": 4041,
      "encies": 4042,
      "Ġcars": 4043,
      "Ġsmart": 4044,
      "Ġreading": 4045,
      "Ġleaving": 4046,
      "Ġdirection": 4047,
      "ĠConstitution": 4048,
      "Ġ90": 4049,
      "Ġconsidered": 4050,
      "Ġconditions": 4051,
      "Ġoccur": 4052,
      "Ġperformance": 4053,
      "ĠGuard": 4054,
      "Ġcombat": 4055,
      "Ġpanel": 4056,
      "TIFIED": 4057,
      "ĠSyria": 4058,
      "Ġliterally": 4059,
      "ĠMassachusetts": 4060,
      "ĠMedicare": 4061,
      "IDENTIFIED": 4062,
      "Coming": 4063,
      "JANINE": 4064,
      "Will": 4065,
      "auc": 4066,
      "eil": 4067,
      "iver": 4068,
      "Ġnone": 4069,
      "Ġladies": 4070,
      "Ġlangu": 4071,
      "Ġstim": 4072,
      "Ġstock": 4073,
      "ĠColl": 4074,
      "Ġrule": 4075,
      "olic": 4076,
      "ĠPl": 4077,
      "ĠHED": 4078,
      "Which": 4079,
      "ĠKim": 4080,
      "Ġspir": 4081,
      "Ġplant": 4082,
      "akers": 4083,
      "ĠYeltsin": 4084,
      "acebook": 4085,
      "Ġguest": 4086,
      "Ġappeal": 4087,
      "Ġboys": 4088,
      "Ġpersonally": 4089,
      "Ġinspect": 4090,
      "Ġbuying": 4091,
      "Ġcolleag": 4092,
      "ĠMartha": 4093,
      "Ġextreme": 4094,
      "Ġsignific": 4095,
      "Ġwondering": 4096,
      "Ġsolve": 4097,
      "Ġsusp": 4098,
      "Ġcolumn": 4099,
      "ĠHarry": 4100,
      "ĠAtlant": 4101,
      "Ġexperts": 4102,
      "Ġhoping": 4103,
      "Ġvolunt": 4104,
      "Ġdescribed": 4105,
      "ĠYODER": 4106,
      "ĠHollywood": 4107,
      "ĠHEDGE": 4108,
      "01": 4109,
      "Pl": 4110,
      "See": 4111,
      "burg": 4112,
      "Ġ&": 4113,
      "Ġver": 4114,
      "Ġice": 4115,
      "Ġfre": 4116,
      "ĠIll": 4117,
      "Ġreve": 4118,
      "acare": 4119,
      "Ġstupid": 4120,
      "Ġshown": 4121,
      "ĠMiddle": 4122,
      "resh": 4123,
      "ĠBost": 4124,
      "ĠBret": 4125,
      "Ġche": 4126,
      "ĠTur": 4127,
      "Ġusually": 4128,
      "ĠLarry": 4129,
      "ĠOne": 4130,
      "Ġgreatest": 4131,
      "Ġsurger": 4132,
      "Ġinvestigators": 4133,
      "Ġchanging": 4134,
      "Ġreflect": 4135,
      "Ġmissing": 4136,
      "Ġpropos": 4137,
      "Ġhospitals": 4138,
      "Ġdrugs": 4139,
      "Ġarrested": 4140,
      "Ġencour": 4141,
      "Ġdropped": 4142,
      "Ġneighbor": 4143,
      "Ġnatural": 4144,
      "Ġspecifically": 4145,
      "Ġrecommend": 4146,
      "ĠBoston": 4147,
      "22": 4148,
      "40": 4149,
      "fer": 4150,
      "lines": 4151,
      "Ġwall": 4152,
      "Ġdiplom": 4153,
      "iced": 4154,
      "idge": 4155,
      "Ġrelease": 4156,
      "Ġgoal": 4157,
      "stein": 4158,
      "Ġjail": 4159,
      "ouri": 4160,
      "ĠDwight": 4161,
      "Ġcomments": 4162,
      "essions": 4163,
      "Ġanywhere": 4164,
      "ociation": 4165,
      "Ġ21": 4166,
      "Ġenorm": 4167,
      "Ġresol": 4168,
      "Ġprevent": 4169,
      "Ġscience": 4170,
      "Ġhelping": 4171,
      "Ġconfidence": 4172,
      "Ġsimilar": 4173,
      "Ġbringing": 4174,
      "Ġeffective": 4175,
      "Ġcosts": 4176,
      "Ġexcited": 4177,
      "ĠMissouri": 4178,
      "ĠAugustine": 4179,
      "Ġbroadcast": 4180,
      "Ġadopt": 4181,
      "ylvania": 4182,
      "Ġestablish": 4183,
      "interview": 4184,
      "ĠAngeles": 4185,
      "Ar": 4186,
      "Br": 4187,
      "IR": 4188,
      "IT": 4189,
      "iant": 4190,
      "iber": 4191,
      "know": 4192,
      "ners": 4193,
      "oo": 4194,
      "rd": 4195,
      "Ġtre": 4196,
      "Ġwed": 4197,
      "Ġband": 4198,
      "Ġbought": 4199,
      "Ġcash": 4200,
      "Ġpubl": 4201,
      "Ġdate": 4202,
      "Ġdress": 4203,
      "Ġnames": 4204,
      "struct": 4205,
      "Ġchem": 4206,
      "Ġproceed": 4207,
      "ĠNancy": 4208,
      "Ġsomewhere": 4209,
      "ĠTw": 4210,
      "employ": 4211,
      "ĠFacebook": 4212,
      "ĠLond": 4213,
      "Ġ29": 4214,
      "Ġunf": 4215,
      "Ġunion": 4216,
      "Ġletters": 4217,
      "Ġbelieved": 4218,
      "Ġbox": 4219,
      "Ġvoting": 4220,
      "Ġplayers": 4221,
      "ĠJohnson": 4222,
      "Ġbuilt": 4223,
      "Ġgives": 4224,
      "nsylvania": 4225,
      "Ġfairly": 4226,
      "ĠOhio": 4227,
      "Ġeasier": 4228,
      "Ġorganiz": 4229,
      "Ġwriter": 4230,
      "Ġsafety": 4231,
      "DAY": 4232,
      "aturday": 4233,
      "Ġcounter": 4234,
      "Ġengine": 4235,
      "addam": 4236,
      "Ġcloser": 4237,
      "Ġrecognize": 4238,
      "ĠPennsylvania": 4239,
      "Ġpilot": 4240,
      "Ġscandal": 4241,
      "Ġcircumst": 4242,
      "ĠObamacare": 4243,
      "Ġenormous": 4244,
      "ĠLondon": 4245,
      "54": 4246,
      "HT": 4247,
      "New": 4248,
      "aily": 4249,
      "dd": 4250,
      "host": 4251,
      "ket": 4252,
      "ufact": 4253,
      "Ġet": 4254,
      "Ġtank": 4255,
      "estern": 4256,
      "Ġnature": 4257,
      "Ġgrab": 4258,
      "entagon": 4259,
      "etic": 4260,
      "Ġreb": 4261,
      "Ġwear": 4262,
      "Ġwealth": 4263,
      "Ġhey": 4264,
      "Ġstem": 4265,
      "ifying": 4266,
      "ĠSoc": 4267,
      "ĠBur": 4268,
      "Ġcommercial": 4269,
      "ĠNavy": 4270,
      "apers": 4271,
      "Ġspread": 4272,
      "ĠWith": 4273,
      "ĠOr": 4274,
      "Ġquiet": 4275,
      "bled": 4276,
      "Ġads": 4277,
      "Ġarmy": 4278,
      "Ġlots": 4279,
      "ordin": 4280,
      "Ġcommit": 4281,
      "Ġblame": 4282,
      "Ġbreaking": 4283,
      "enced": 4284,
      "Ġbasic": 4285,
      "Ġsched": 4286,
      "Ġnewsp": 4287,
      "Ġpossibly": 4288,
      "from": 4289,
      "Ġpresence": 4290,
      "Ġcapt": 4291,
      "Ġmovies": 4292,
      "ĠHarris": 4293,
      "ĠUSA": 4294,
      "Ġjournalist": 4295,
      "ĠCenter": 4296,
      "Ġnegoti": 4297,
      "Ġdeliver": 4298,
      "UNIDENTIFIED": 4299,
      "Ġfloor": 4300,
      "Ġlaunch": 4301,
      "Ġlanguage": 4302,
      "Ġstimul": 4303,
      "Join": 4304,
      "fire": 4305,
      "ties": 4306,
      "Ġeth": 4307,
      "ene": 4308,
      "Ġdoz": 4309,
      "Ġforg": 4310,
      "ĠSaddam": 4311,
      "Ġrout": 4312,
      "ĠMus": 4313,
      "chie": 4314,
      "Ġtherefore": 4315,
      "ĠHam": 4316,
      "ĠGerman": 4317,
      "Ġbecomes": 4318,
      "ĠKell": 4319,
      "elms": 4320,
      "ello": 4321,
      "ĠLope": 4322,
      "Ġhowever": 4323,
      "ĠYour": 4324,
      "abeth": 4325,
      "izabeth": 4326,
      "Ġcontract": 4327,
      "ĠWhen": 4328,
      "Ġinterests": 4329,
      "Ġdesp": 4330,
      "Ġdesign": 4331,
      "Ġseconds": 4332,
      "Ġcontroll": 4333,
      "ARY": 4334,
      "Ġadvice": 4335,
      "Ġdollar": 4336,
      "ĠSecurity": 4337,
      "Ġnecessary": 4338,
      "Ġgenerally": 4339,
      "Ġcounsel": 4340,
      "LIANA": 4341,
      "Ġnetwork": 4342,
      "Ġinfluence": 4343,
      "Ġdegree": 4344,
      "Ġpurpose": 4345,
      "Ġsignificant": 4346,
      "ĠLopez": 4347,
      "**": 4348,
      "AS": 4349,
      "Fr": 4350,
      "ILL": 4351,
      "Tom": 4352,
      "Tonight": 4353,
      "for": 4354,
      "law": 4355,
      "rick": 4356,
      "sp": 4357,
      "Ġwounded": 4358,
      "oul": 4359,
      "isan": 4360,
      "Ġbure": 4361,
      "Ġpark": 4362,
      "Ġpath": 4363,
      "Ġfellow": 4364,
      "Ġfuel": 4365,
      "oto": 4366,
      "ented": 4367,
      "Ġreview": 4368,
      "Ġforced": 4369,
      "Ġabove": 4370,
      "Ġnote": 4371,
      "ĠMy": 4372,
      "ĠMad": 4373,
      "ĠPentagon": 4374,
      "ĠDid": 4375,
      "ĠNight": 4376,
      "ĠJune": 4377,
      "ĠTe": 4378,
      "osen": 4379,
      "ĠWal": 4380,
      "Ġevents": 4381,
      "Ġarm": 4382,
      "aker": 4383,
      "others": 4384,
      "Ġruns": 4385,
      "Ġimpeach": 4386,
      "Ġconfr": 4387,
      "Ġcarry": 4388,
      "Ġkilling": 4389,
      "Ġdiscovered": 4390,
      "Ġolder": 4391,
      "appy": 4392,
      "Ġsentence": 4393,
      "Ġ80": 4394,
      "Ġradical": 4395,
      "Ġservices": 4396,
      "Ġannounce": 4397,
      "Ġindividuals": 4398,
      "Ġlabor": 4399,
      "Ġsales": 4400,
      "Ġdevast": 4401,
      "Ġstrike": 4402,
      "Ġtherap": 4403,
      "Ġpoliticians": 4404,
      "Ġchoose": 4405,
      "Ġgentlemen": 4406,
      "Ġemergency": 4407,
      "Ġtradition": 4408,
      "IGHT": 4409,
      "Ġdisease": 4410,
      "ĠAtlanta": 4411,
      "52": 4412,
      "59": 4413,
      "IZ": 4414,
      "Wait": 4415,
      "night": 4416,
      "Ġign": 4417,
      "onse": 4418,
      "Ġhang": 4419,
      "itol": 4420,
      "Ġmob": 4421,
      "Ġfell": 4422,
      "Ġfresh": 4423,
      "Ġlink": 4424,
      "icide": 4425,
      "ays": 4426,
      "Ġweight": 4427,
      "roll": 4428,
      "allas": 4429,
      "ĠCasey": 4430,
      "illing": 4431,
      "ĠSean": 4432,
      "ĠSaturday": 4433,
      "Ġareas": 4434,
      "ols": 4435,
      "ĠRes": 4436,
      "ĠDNA": 4437,
      "osn": 4438,
      "ĠGreen": 4439,
      "emember": 4440,
      "ĠFOX": 4441,
      "Ġagencies": 4442,
      "Ġhero": 4443,
      "Ġanyway": 4444,
      "Ġimage": 4445,
      "Ġmanufact": 4446,
      "Ġoverwh": 4447,
      "Ġprime": 4448,
      "Ġcontact": 4449,
      "Ġacknow": 4450,
      "Ġdisaster": 4451,
      "ĠVice": 4452,
      "Ġstatements": 4453,
      "Ġcareful": 4454,
      "Ġdescribe": 4455,
      "Ġregular": 4456,
      "ashion": 4457,
      "ĠFrank": 4458,
      "Ġ70": 4459,
      "Ġsolution": 4460,
      "Ġgeneration": 4461,
      "ĠPhil": 4462,
      "Ġcharged": 4463,
      "Ġwitnesses": 4464,
      "STER": 4465,
      "avior": 4466,
      "Ġreveal": 4467,
      "employment": 4468,
      "Ġacknowled": 4469,
      "36": 4470,
      "Come": 4471,
      "US": 4472,
      "mail": 4473,
      "overy": 4474,
      "ring": 4475,
      "rain": 4476,
      "ya": 4477,
      "yard": 4478,
      "ĠĠ": 4479,
      "Ġwide": 4480,
      "Ġdark": 4481,
      "arz": 4482,
      "Ġgam": 4483,
      "ompl": 4484,
      "icul": 4485,
      "usse": 4486,
      "iden": 4487,
      "igning": 4488,
      "Ġstren": 4489,
      "ĠCoun": 4490,
      "Their": 4491,
      "ĠMur": 4492,
      "ĠPar": 4493,
      "ctober": 4494,
      "Ġjustices": 4495,
      "ĠRyan": 4496,
      "Ġvice": 4497,
      "Ġupset": 4498,
      "ĠGar": 4499,
      "umer": 4500,
      "Ġ13": 4501,
      "Ġbecoming": 4502,
      "ems": 4503,
      "ĠLou": 4504,
      "raft": 4505,
      "Ġquality": 4506,
      "Ġunlike": 4507,
      "Ġcoach": 4508,
      "Ġscared": 4509,
      "ĠWhy": 4510,
      "Ġhelps": 4511,
      "Ġaccompl": 4512,
      "ĠMrs": 4513,
      "Ġkeeping": 4514,
      "Ġflood": 4515,
      "pective": 4516,
      "ĠIraqis": 4517,
      "Ġextent": 4518,
      "Ġinterviews": 4519,
      "Ġdirectly": 4520,
      "efense": 4521,
      "pril": 4522,
      "Ġsenator": 4523,
      "Ġpicked": 4524,
      "Ġpopulation": 4525,
      "Ġdouble": 4526,
      "Ġphotos": 4527,
      "Ġsuggested": 4528,
      "Ġjudgment": 4529,
      "Another": 4530,
      "ĠAtt": 4531,
      "Ġbirthday": 4532,
      "Ġbenefit": 4533,
      "inois": 4534,
      "Ġpractice": 4535,
      "Ġsources": 4536,
      "Ġseparate": 4537,
      "ĠPalestinian": 4538,
      "ĠKorea": 4539,
      "Ġoriginal": 4540,
      "AK": 4541,
      "WS": 4542,
      "ares": 4543,
      "bara": 4544,
      "called": 4545,
      "ipp": 4546,
      "ky": 4547,
      "ken": 4548,
      "Ġachie": 4549,
      "iny": 4550,
      "inet": 4551,
      "inese": 4552,
      "rel": 4553,
      "isters": 4554,
      "Ġcert": 4555,
      "Ġcities": 4556,
      "Ġfle": 4557,
      "Ġfinger": 4558,
      "omas": 4559,
      "Ġrates": 4560,
      "isten": 4561,
      "ĠHOL": 4562,
      "acks": 4563,
      "ĠJew": 4564,
      "Ġsun": 4565,
      "Ġexch": 4566,
      "osov": 4567,
      "unist": 4568,
      "ĠKosov": 4569,
      "ounding": 4570,
      "Ġcomprom": 4571,
      "Ġdecades": 4572,
      "Ġblow": 4573,
      "ĠAnderson": 4574,
      "ancing": 4575,
      "Ġimposs": 4576,
      "Ġhandle": 4577,
      "Ġsupporting": 4578,
      "what": 4579,
      "Ġrestaur": 4580,
      "Ġveto": 4581,
      "Ġdemon": 4582,
      "annon": 4583,
      "Still": 4584,
      "BIZ": 4585,
      "Ġoperation": 4586,
      "ursday": 4587,
      "ennis": 4588,
      "Ġbaseball": 4589,
      "Ġpolls": 4590,
      "Ġraped": 4591,
      "OWBIZ": 4592,
      "Ġculture": 4593,
      "ĠIndianapol": 4594,
      "Ġsweet": 4595,
      "Ġsanctions": 4596,
      "Ġenforcement": 4597,
      "Ġsurgery": 4598,
      "ĠTwitter": 4599,
      "ĠMuslim": 4600,
      "Ġoverwhel": 4601,
      "ĠIndianapolis": 4602,
      "02": 4603,
      "03": 4604,
      "23": 4605,
      "Please": 4606,
      "field": 4607,
      "gen": 4608,
      "ipped": 4609,
      "lam": 4610,
      "rated": 4611,
      "vere": 4612,
      "Ġsn": 4613,
      "ites": 4614,
      "Ġbunch": 4615,
      "Ġmort": 4616,
      "arn": 4617,
      "Ġlady": 4618,
      "icious": 4619,
      "ids": 4620,
      "uten": 4621,
      "iform": 4622,
      "Ġrough": 4623,
      "chicine": 4624,
      "Ġconcl": 4625,
      "ĠBosn": 4626,
      "ĠRick": 4627,
      "ĠDick": 4628,
      "Ġlob": 4629,
      "Ġloyal": 4630,
      "ĠNeil": 4631,
      "Ġexerc": 4632,
      "rial": 4633,
      "ĠKerry": 4634,
      "ĠFox": 4635,
      "apt": 4636,
      "ĠOctober": 4637,
      "agic": 4638,
      "Ġunless": 4639,
      "Ġactual": 4640,
      "Ġdecade": 4641,
      "rating": 4642,
      "Ġserving": 4643,
      "Ġpositions": 4644,
      "Ġsurr": 4645,
      "Ġbasis": 4646,
      "Ġlegit": 4647,
      "Ġelimin": 4648,
      "Ġkiller": 4649,
      "Ġyounger": 4650,
      "Ġforever": 4651,
      "ĠRomania": 4652,
      "Once": 4653,
      "Ġdivorce": 4654,
      "Ġlimit": 4655,
      "Ġhonor": 4656,
      "ĠAfrica": 4657,
      "Ġjournalists": 4658,
      "ĠScott": 4659,
      "Ġactivity": 4660,
      "Ġbenefits": 4661,
      "itzer": 4662,
      "Ġdisappoint": 4663,
      "Ġfootball": 4664,
      "Ġultimately": 4665,
      "Ġemotional": 4666,
      "Ġveterans": 4667,
      "ĠInternet": 4668,
      "Sometimes": 4669,
      "Ġangry": 4670,
      "interviewing": 4671,
      "Ġimpossible": 4672,
      "08": 4673,
      "21": 4674,
      "47": 4675,
      "Am": 4676,
      "IC": 4677,
      "Man": 4678,
      "Many": 4679,
      "Nob": 4680,
      "bel": 4681,
      "fight": 4682,
      "ique": 4683,
      "light": 4684,
      "you": 4685,
      "ĠThank": 4686,
      "insey": 4687,
      "enry": 4688,
      "Ġmale": 4689,
      "ana": 4690,
      "Ġnerv": 4691,
      "using": 4692,
      "ushing": 4693,
      "idency": 4694,
      "uts": 4695,
      "imb": 4696,
      "imon": 4697,
      "Ġheavy": 4698,
      "odies": 4699,
      "ĠBra": 4700,
      "Ġtrained": 4701,
      "Ġsoft": 4702,
      "ĠHol": 4703,
      "ĠDon": 4704,
      "ĠDet": 4705,
      "Ġcomed": 4706,
      "Ġsuit": 4707,
      "Ġvac": 4708,
      "Ġvirt": 4709,
      "Ġsaving": 4710,
      "ĠTO": 4711,
      "Ġspl": 4712,
      "ocracy": 4713,
      "Ġsees": 4714,
      "Ġoverse": 4715,
      "Ġuniform": 4716,
      "Ġcontext": 4717,
      "Ġexpress": 4718,
      "Ġperman": 4719,
      "Ġgrad": 4720,
      "ĠChinese": 4721,
      "Ġprevious": 4722,
      "Ġrecon": 4723,
      "Ġsupporters": 4724,
      "ĠWhit": 4725,
      "Ġhearings": 4726,
      "Ġturns": 4727,
      "Ġfinish": 4728,
      "Ġcontinued": 4729,
      "Ġsupported": 4730,
      "ĠWeb": 4731,
      "ĠWee": 4732,
      "Ġbusinesses": 4733,
      "Ġcourtroom": 4734,
      "Ġmarch": 4735,
      "Ġinterviewed": 4736,
      "Ġbehavior": 4737,
      "Ġlearning": 4738,
      "ĠMaryland": 4739,
      "Ġpromise": 4740,
      "ĠIsraeli": 4741,
      "Ġequal": 4742,
      "Ġjudges": 4743,
      "Ġdocuments": 4744,
      "Ġaware": 4745,
      "ĠCapitol": 4746,
      "ĠRoberts": 4747,
      "Ġvalues": 4748,
      "ĠAssociation": 4749,
      "Ġcontribut": 4750,
      "Ġspokes": 4751,
      "Ġenemy": 4752,
      "Ġsleep": 4753,
      "ĠNATO": 4754,
      "Ġdetermin": 4755,
      "Ġarrived": 4756,
      "Ġfemale": 4757,
      "Ġvolunte": 4758,
      "ĠIllinois": 4759,
      "Ġstrength": 4760,
      "ĠHOLT": 4761,
      "utenant": 4762,
      "Ġnervous": 4763,
      "31": 4764,
      "43": 4765,
      "ALL": 4766,
      "Back": 4767,
      "Congress": 4768,
      "Great": 4769,
      "Next": 4770,
      "Tell": 4771,
      "WAT": 4772,
      "gn": 4773,
      "gia": 4774,
      "iar": 4775,
      "Ġ?": 4776,
      "ĠThanks": 4777,
      "Ġbreat": 4778,
      "orge": 4779,
      "Ġmult": 4780,
      "Ġfit": 4781,
      "Ġdig": 4782,
      "oted": 4783,
      "Ġele": 4784,
      "Ġrepl": 4785,
      "Ġreplace": 4786,
      "Ġwearing": 4787,
      "Ġheat": 4788,
      "Ġstick": 4789,
      "Ġanim": 4790,
      "ĠApril": 4791,
      "ĠMAN": 4792,
      "ĠMont": 4793,
      "Ġconstant": 4794,
      "ĠBiden": 4795,
      "isted": 4796,
      "ĠDEE": 4797,
      "Ġdeleg": 4798,
      "Ġ\".": 4799,
      "ĠTo": 4800,
      "ums": 4801,
      "Ġaggress": 4802,
      "ĠLaw": 4803,
      "Ġqual": 4804,
      "Ġintrod": 4805,
      "ipment": 4806,
      "Ġunemployment": 4807,
      "assis": 4808,
      "Ġpresidents": 4809,
      "Ġresc": 4810,
      "Ġblock": 4811,
      "Ġstruct": 4812,
      "However": 4813,
      "Ġrepeated": 4814,
      "Ġfinding": 4815,
      "ucker": 4816,
      "Ġresponse": 4817,
      "friend": 4818,
      "Ġtransition": 4819,
      "Ġinclude": 4820,
      "Ġparticip": 4821,
      "Ġsinging": 4822,
      "Ġconvicted": 4823,
      "eptember": 4824,
      "ĠCaptain": 4825,
      "Ġfacing": 4826,
      "Ġstrateg": 4827,
      "Ġsource": 4828,
      "Ġtheres": 4829,
      "Ġlucky": 4830,
      "Ġprofessional": 4831,
      "Ġdinner": 4832,
      "Again": 4833,
      "Ġmachine": 4834,
      "Ġextremely": 4835,
      "Ġconfront": 4836,
      "ĠDEEP": 4837,
      "05": 4838,
      "MICH": 4839,
      "Ph": 4840,
      "eat": 4841,
      "hour": 4842,
      "mber": 4843,
      "point": 4844,
      "rimin": 4845,
      "Ġsea": 4846,
      "Ġsnow": 4847,
      "Ġbodies": 4848,
      "Ġcant": 4849,
      "Ġmat": 4850,
      "Ġmount": 4851,
      "Ġfif": 4852,
      "Ġfile": 4853,
      "Ġdrop": 4854,
      "Ġnar": 4855,
      "Ġgra": 4856,
      "vember": 4857,
      "owers": 4858,
      "usual": 4859,
      "erend": 4860,
      "Ġstood": 4861,
      "ifer": 4862,
      "ĠSan": 4863,
      "ĠSimpson": 4864,
      "Ġround": 4865,
      "Ġshut": 4866,
      "ĠAir": 4867,
      "ĠMel": 4868,
      "iling": 4869,
      "ĠPorter": 4870,
      "Ġchec": 4871,
      "ĠHOR": 4872,
      "ĠNot": 4873,
      "ĠNBC": 4874,
      "Ġaltern": 4875,
      "ĠTen": 4876,
      "ĠFound": 4877,
      "ĠFather": 4878,
      "arely": 4879,
      "ĠLat": 4880,
      "ĠLes": 4881,
      "Ġ22": 4882,
      "Ġapply": 4883,
      "Ġappears": 4884,
      "Ġrob": 4885,
      "Ġscream": 4886,
      "Ġincome": 4887,
      "Ġgreater": 4888,
      "ĠJoy": 4889,
      "Ġsurf": 4890,
      "Ġmoments": 4891,
      "Ġdram": 4892,
      "Ġcorpor": 4893,
      "Ġfarm": 4894,
      "Ġsetting": 4895,
      "ification": 4896,
      "Ġinstance": 4897,
      "Ġprotest": 4898,
      "ĠThursday": 4899,
      "Ġsmaller": 4900,
      "Ġmission": 4901,
      "Ġproposed": 4902,
      "Ġembarr": 4903,
      "Ġequipment": 4904,
      "Ġfocused": 4905,
      "Should": 4906,
      "Ġdriving": 4907,
      "Ġvalue": 4908,
      "Ġcomplicated": 4909,
      "onica": 4910,
      "Ġteachers": 4911,
      "Ġconnection": 4912,
      "Ġopposition": 4913,
      "ĠQu": 4914,
      "Ġprosecutor": 4915,
      "Ġcasual": 4916,
      "Ġindependent": 4917,
      "Ġvehicle": 4918,
      "Ġtarget": 4919,
      "Ġcircumstances": 4920,
      "IZON": 4921,
      "WATER": 4922,
      "ĠDEEPWATER": 4923,
      "ĠHORIZON": 4924,
      "Ġembarrass": 4925,
      "33": 4926,
      "48": 4927,
      "CNN": 4928,
      "Hour": 4929,
      "aust": 4930,
      "pan": 4931,
      "Ġtrem": 4932,
      "Ġwake": 4933,
      "aters": 4934,
      "orther": 4935,
      "Ġmir": 4936,
      "iment": 4937,
      "Ġgold": 4938,
      "ĠSessions": 4939,
      "ĠSeptember": 4940,
      "anted": 4941,
      "iel": 4942,
      "ĠHUD": 4943,
      "ĠGraham": 4944,
      "ĠFirst": 4945,
      "ĠLook": 4946,
      "ĠLaura": 4947,
      "rage": 4948,
      "ineyard": 4949,
      "ocking": 4950,
      "agh": 4951,
      "Ġmeaning": 4952,
      "Ġotherwise": 4953,
      "Ġcontr": 4954,
      "ender": 4955,
      "Ġresign": 4956,
      "Ġresolution": 4957,
      "Ġmayor": 4958,
      "Ġmoral": 4959,
      "Ġsurge": 4960,
      "Ġconfirm": 4961,
      "Ġcorner": 4962,
      "Ġobvious": 4963,
      "Ġassum": 4964,
      "Ġassume": 4965,
      "teen": 4966,
      "Ġstudies": 4967,
      "Ġopening": 4968,
      "Ġpresidency": 4969,
      "Ġanswers": 4970,
      "ruary": 4971,
      "Ġminds": 4972,
      "Ġglob": 4973,
      "Ġlimited": 4974,
      "Ġfirefight": 4975,
      "Ġ2008": 4976,
      "ebruary": 4977,
      "Ġembr": 4978,
      "Everybody": 4979,
      "Ġcompetition": 4980,
      "Ġreached": 4981,
      "Ġdamage": 4982,
      "Ġtort": 4983,
      "ĠElizabeth": 4984,
      "ĠEngland": 4985,
      "orthern": 4986,
      "ĠHUDSON": 4987,
      "53": 4988,
      "Donna": 4989,
      "JO": 4990,
      "Kathy": 4991,
      "Last": 4992,
      "Simpson": 4993,
      "cy": 4994,
      "down": 4995,
      "five": 4996,
      "oe": 4997,
      "och": 4998,
      "uzz": 4999,
      "Ġer": 5000,
      "ero": 5001,
      "Ġske": 5002,
      "isa": 5003,
      "Ġodd": 5004,
      "oring": 5005,
      "orne": 5006,
      "Ġpurs": 5007,
      "Ġfasc": 5008,
      "Ġdying": 5009,
      "arant": 5010,
      "Ġreject": 5011,
      "ĠCath": 5012,
      "ĠSaf": 5013,
      "Ġje": 5014,
      "Ġnotice": 5015,
      "Ġliked": 5016,
      "ĠPort": 5017,
      "Ġproced": 5018,
      "ĠGM": 5019,
      "ĠGold": 5020,
      "ansas": 5021,
      "Ġarr": 5022,
      "Ġprint": 5023,
      "Ġcoal": 5024,
      "ĠStud": 5025,
      "Ġens": 5026,
      "Ġcaused": 5027,
      "ordan": 5028,
      "ĠVineyard": 5029,
      "Ġremain": 5030,
      "ONIGHT": 5031,
      "Ġbusy": 5032,
      "Ġpublicly": 5033,
      "Ġflag": 5034,
      "Ġcarrying": 5035,
      "Ġassoc": 5036,
      "Ġheadlines": 5037,
      "ĠHealth": 5038,
      "ĠThomas": 5039,
      "ĠRoman": 5040,
      "Ġdemocracy": 5041,
      "ĠNovember": 5042,
      "stitute": 5043,
      "Ġglad": 5044,
      "ĠSuper": 5045,
      "ĠAnn": 5046,
      "Ġbombs": 5047,
      "Ġfunding": 5048,
      "Ġfundament": 5049,
      "ĠCoast": 5050,
      "Ġincreasing": 5051,
      "Ġapolog": 5052,
      "ĠJackson": 5053,
      "Ġavoid": 5054,
      "Ġpulled": 5055,
      "Ġdraw": 5056,
      "Ġincredibly": 5057,
      "Ġsuffering": 5058,
      "Ġwindow": 5059,
      "Ġversion": 5060,
      "Ġdelay": 5061,
      "Ġlarger": 5062,
      "Obviously": 5063,
      "ĠSHOWBIZ": 5064,
      "Ġaccurate": 5065,
      "Ġspirit": 5066,
      "Ġwedding": 5067,
      "ĠSocial": 5068,
      "Joining": 5069,
      "16": 5070,
      "34": 5071,
      "44": 5072,
      "45": 5073,
      "Bob": 5074,
      "David": 5075,
      "Hello": 5076,
      "Remember": 5077,
      "Tw": 5078,
      "cuse": 5079,
      "craft": 5080,
      "hand": 5081,
      "nest": 5082,
      "new": 5083,
      "pay": 5084,
      "Ġtired": 5085,
      "Ġtaught": 5086,
      "Ġath": 5087,
      "Ġsouth": 5088,
      "atures": 5089,
      "Ġcard": 5090,
      "Ġcatch": 5091,
      "Ġded": 5092,
      "ednes": 5093,
      "Ġlaugh": 5094,
      "ici": 5095,
      "alt": 5096,
      "Ġhall": 5097,
      "acher": 5098,
      "Ġkick": 5099,
      "Ġstress": 5100,
      "Ġstorm": 5101,
      "stone": 5102,
      "ado": 5103,
      "ĠSouthern": 5104,
      "Ġrise": 5105,
      "urd": 5106,
      "ĠBank": 5107,
      "Ġallies": 5108,
      "ĠDec": 5109,
      "ĠJesse": 5110,
      "ĠTONIGHT": 5111,
      "ques": 5112,
      "uman": 5113,
      "ĠFebruary": 5114,
      "apes": 5115,
      "elling": 5116,
      "ĠOF": 5117,
      "agn": 5118,
      "Ġ26": 5119,
      "abor": 5120,
      "Ġunusual": 5121,
      "Ġcloth": 5122,
      "Ġguard": 5123,
      "Ġcommission": 5124,
      "ogle": 5125,
      "Ġattitude": 5126,
      "Ġrealized": 5127,
      "Ġ35": 5128,
      "Ġturning": 5129,
      "Ġregion": 5130,
      "Ġdetail": 5131,
      "Ġdeterm": 5132,
      "ennedys": 5133,
      "apped": 5134,
      "ĠFrance": 5135,
      "Ġstayed": 5136,
      "ĠGeorgia": 5137,
      "Ġimmigrants": 5138,
      "Ġcolchicine": 5139,
      "Ġphotograph": 5140,
      "Ġguns": 5141,
      "ĠDole": 5142,
      "Ġgrowth": 5143,
      "Ġnegative": 5144,
      "Ġexcuse": 5145,
      "Ġawful": 5146,
      "KATE": 5147,
      "Ġcurrently": 5148,
      "Ġautom": 5149,
      "Ġphysical": 5150,
      "OMAN": 5151,
      "Ġperspective": 5152,
      "Ġsuddenly": 5153,
      "Ġremarkable": 5154,
      "Ġflying": 5155,
      "Ġvarious": 5156,
      "Ġcustom": 5157,
      "Ġanalyst": 5158,
      "Ġorganizations": 5159,
      "ĠNightline": 5160,
      "ĠKosovo": 5161,
      "ednesday": 5162,
      "Ġdetermine": 5163,
      "07": 5164,
      "29": 5165,
      "EO": 5166,
      "HN": 5167,
      "egr": 5168,
      "giving": 5169,
      "lo": 5170,
      "mitted": 5171,
      "oved": 5172,
      "rich": 5173,
      "ining": 5174,
      "ouston": 5175,
      "rep": 5176,
      "Ġhy": 5177,
      "Ġhat": 5178,
      "Ġmix": 5179,
      "Ġport": 5180,
      "Ġpushing": 5181,
      "Ġfan": 5182,
      "Ġfaces": 5183,
      "Ġdom": 5184,
      "Ġdue": 5185,
      "asion": 5186,
      "Ġgay": 5187,
      "Ġgames": 5188,
      "ĠII": 5189,
      "usan": 5190,
      "Three": 5191,
      "Ġgosh": 5192,
      "ĠCru": 5193,
      "ifts": 5194,
      "irmed": 5195,
      "ĠSm": 5196,
      "Ġrh": 5197,
      "thony": 5198,
      "ĠMa": 5199,
      "ches": 5200,
      "ĠRad": 5201,
      "ĠHun": 5202,
      "ĠHiggs": 5203,
      "Ġpros": 5204,
      "anding": 5205,
      "ĠJay": 5206,
      "Ġsomewhat": 5207,
      "eaker": 5208,
      "ĠKinsey": 5209,
      "ĠFed": 5210,
      "Ġspot": 5211,
      "ĠWil": 5212,
      "Ġpoet": 5213,
      "Ġguarant": 5214,
      "endous": 5215,
      "Ġpregn": 5216,
      "ishop": 5217,
      "Ġattract": 5218,
      "ĠWho": 5219,
      "Ġstrange": 5220,
      "Ġends": 5221,
      "Ġrepeal": 5222,
      "Ġplanned": 5223,
      "Ġcontinuing": 5224,
      "Ġhighly": 5225,
      "Ġhealthy": 5226,
      "ĠIslam": 5227,
      "Ġaircraft": 5228,
      "Ġsigns": 5229,
      "Ġexperi": 5230,
      "BILL": 5231,
      "ĠCommand": 5232,
      "Ġreturned": 5233,
      "Ġvictory": 5234,
      "Ġcolor": 5235,
      "Ġoccup": 5236,
      "ĠCharlie": 5237,
      "Ġracial": 5238,
      "ĠOnassis": 5239,
      "regon": 5240,
      "AMARY": 5241,
      "ĠCentral": 5242,
      "Ġcontroversial": 5243,
      "Ġunfortunately": 5244,
      "Ġneighborhood": 5245,
      "elmsley": 5246,
      "Ġoverwhelming": 5247,
      "AMARYN": 5248,
      "32": 5249,
      "App": 5250,
      "Conn": 5251,
      "FR": 5252,
      "Listen": 5253,
      "TH": 5254,
      "Up": 5255,
      "ca": 5256,
      "cing": 5257,
      "iat": 5258,
      "ixt": 5259,
      "life": 5260,
      "mit": 5261,
      "rough": 5262,
      "sid": 5263,
      "vable": 5264,
      "yr": 5265,
      "rees": 5266,
      "Ġcute": 5267,
      "Ġdata": 5268,
      "astern": 5269,
      "Ġlaid": 5270,
      "Ġgro": 5271,
      "icop": 5272,
      "Ġbeach": 5273,
      "oting": 5274,
      "Ġweather": 5275,
      "stery": 5276,
      "illed": 5277,
      "ading": 5278,
      "ĠSaud": 5279,
      "Ġabs": 5280,
      "Ġjur": 5281,
      "Ġnotion": 5282,
      "ĠMatt": 5283,
      "estic": 5284,
      "cell": 5285,
      "ĠBri": 5286,
      "Ġtrain": 5287,
      "istent": 5288,
      "ĠRen": 5289,
      "ĠHon": 5290,
      "ĠHenry": 5291,
      "ĠJordan": 5292,
      "Ġalthough": 5293,
      "Ġnovel": 5294,
      "Ġmanage": 5295,
      "Ġexpensive": 5296,
      "ĠChief": 5297,
      "icks": 5298,
      "Ġdecl": 5299,
      "Ġstarts": 5300,
      "Ġfactor": 5301,
      "Ġremains": 5302,
      "Ġstruck": 5303,
      "Ġconspir": 5304,
      "uller": 5305,
      "Ġplanning": 5306,
      "Ġunderstanding": 5307,
      "Ġhighest": 5308,
      "Ġpassion": 5309,
      "Ġrefer": 5310,
      "Ġadvance": 5311,
      "Ġreasonable": 5312,
      "Ġstrongly": 5313,
      "Only": 5314,
      "Ġargue": 5315,
      "Ġsteps": 5316,
      "Ġcondition": 5317,
      "Ġsending": 5318,
      "Ġcommunities": 5319,
      "Ġbiological": 5320,
      "Ġadmit": 5321,
      "Ġbanks": 5322,
      "ĠPrime": 5323,
      "Ġmistake": 5324,
      "Ġmaterial": 5325,
      "Ġcolleagues": 5326,
      "Ġnewspaper": 5327,
      "Ġexchange": 5328,
      "Nobody": 5329,
      "Ġoverseas": 5330,
      "Ġmatters": 5331,
      "ĠFoundation": 5332,
      "18": 5333,
      "26": 5334,
      "41": 5335,
      "AC": 5336,
      "Nice": 5337,
      "board": 5338,
      "bishop": 5339,
      "care": 5340,
      "ford": 5341,
      "hen": 5342,
      "had": 5343,
      "na": 5344,
      "nown": 5345,
      "win": 5346,
      "Ġtit": 5347,
      "Ġtick": 5348,
      "Ġsisters": 5349,
      "Ġble": 5350,
      "Ġbull": 5351,
      "Ġcrew": 5352,
      "Ġcode": 5353,
      "Ġcrying": 5354,
      "Ġow": 5355,
      "Ġfires": 5356,
      "Ġfashion": 5357,
      "Ġlic": 5358,
      "icles": 5359,
      "idel": 5360,
      "Ġgolf": 5361,
      "stream": 5362,
      "stalk": 5363,
      "ĠCIA": 5364,
      "Ġrising": 5365,
      "Ġknife": 5366,
      "ĠAre": 5367,
      "ĠMOR": 5368,
      "ĠBig": 5369,
      "ĠBAK": 5370,
      "ĠBagh": 5371,
      "ĠHusse": 5372,
      "ĠDes": 5373,
      "ĠDallas": 5374,
      "Ġsuicide": 5375,
      "Ġvul": 5376,
      "quar": 5377,
      "ĠKennedys": 5378,
      "ĠFRE": 5379,
      "ĠFoods": 5380,
      "Ġspect": 5381,
      "ĠWednesday": 5382,
      "ĠOregon": 5383,
      "Ġimages": 5384,
      "Ġ27": 5385,
      "abama": 5386,
      "ĠChuck": 5387,
      "icken": 5388,
      "uced": 5389,
      "Ġcrack": 5390,
      "iana": 5391,
      "Ġpointed": 5392,
      "ratulations": 5393,
      "ĠWhole": 5394,
      "ension": 5395,
      "Ġteen": 5396,
      "Ġtext": 5397,
      "Ġheads": 5398,
      "Ġheadline": 5399,
      "ĠMarch": 5400,
      "Ġwinning": 5401,
      "Ġtransform": 5402,
      "ARD": 5403,
      "Ġcutting": 5404,
      "ĠAlan": 5405,
      "ĠAlabama": 5406,
      "Ġfamiliar": 5407,
      "Ġsucceed": 5408,
      "Ġpatient": 5409,
      "ccording": 5410,
      "Ġfunds": 5411,
      "Ġchallenges": 5412,
      "Ġ2012": 5413,
      "Ġdriver": 5414,
      "ĠSchool": 5415,
      "ĠPaula": 5416,
      "Ġsuffered": 5417,
      "Ġdenied": 5418,
      "lfare": 5419,
      "Ġsatis": 5420,
      "Ġdestroyed": 5421,
      "Ġbelong": 5422,
      "ĠGlob": 5423,
      "Ġpackage": 5424,
      "Ġconstitutional": 5425,
      "rosstalk": 5426,
      "Ġpublished": 5427,
      "Ġdespite": 5428,
      "Ġimpeachment": 5429,
      "ĠBosnia": 5430,
      "ĠTODAY": 5431,
      "Ġtremendous": 5432,
      "ĠSaudi": 5433,
      "ĠHussein": 5434,
      "06": 5435,
      "38": 5436,
      "42": 5437,
      "46": 5438,
      "56": 5439,
      "Act": 5440,
      "ION": 5441,
      "Sp": 5442,
      "Since": 5443,
      "Ste": 5444,
      "dad": 5445,
      "ma": 5446,
      "oen": 5447,
      "vest": 5448,
      "Ġtight": 5449,
      "Ġwild": 5450,
      "Ġsand": 5451,
      "Ġhired": 5452,
      "Ġbra": 5453,
      "Ġbail": 5454,
      "Ġcast": 5455,
      "Ġdump": 5456,
      "Ġlying": 5457,
      "ĠIre": 5458,
      "usive": 5459,
      "Ġonto": 5460,
      "Ġweak": 5461,
      "sequ": 5462,
      "ĠCount": 5463,
      "ĠSher": 5464,
      "Ġshoes": 5465,
      "Ġshocked": 5466,
      "ĠAust": 5467,
      "Ġaside": 5468,
      "ĠMm": 5469,
      "ĠMILL": 5470,
      "Ġmeasure": 5471,
      "ĠBen": 5472,
      "Ġtrail": 5473,
      "Ġtruly": 5474,
      "istics": 5475,
      "ĠHis": 5476,
      "ĠDefense": 5477,
      "Ġproper": 5478,
      "ĠNet": 5479,
      "ĠNiger": 5480,
      "ĠJared": 5481,
      "ĠJournal": 5482,
      "umber": 5483,
      "ĠKath": 5484,
      "Ġmystery": 5485,
      "ĠFour": 5486,
      "ĠLib": 5487,
      "ĠLiber": 5488,
      "ĠEric": 5489,
      "Ġresour": 5490,
      "ĠChurch": 5491,
      "ords": 5492,
      "Ġappeared": 5493,
      "Ġrecession": 5494,
      "Ġcrimes": 5495,
      "Ġteacher": 5496,
      "Ġowners": 5497,
      "Ġ300": 5498,
      "Ġrelated": 5499,
      "Ġminim": 5500,
      "Ġkeeps": 5501,
      "Ġdesigned": 5502,
      "Ġregulations": 5503,
      "Ġstudio": 5504,
      "ARON": 5505,
      "Ġrefused": 5506,
      "Ġmeetings": 5507,
      "ĠFrom": 5508,
      "Ġexplos": 5509,
      "Ġincludes": 5510,
      "LESTER": 5511,
      "Ġaffairs": 5512,
      "Ġfiled": 5513,
      "Ġdivided": 5514,
      "Ġoperations": 5515,
      "Ġfeed": 5516,
      "Ġrequest": 5517,
      "Ġburden": 5518,
      "ĠBarbara": 5519,
      "Ġsoldier": 5520,
      "ĠPhoto": 5521,
      "Ġauthorities": 5522,
      "Ġreceive": 5523,
      "ĠMedical": 5524,
      "Ġsurviv": 5525,
      "Ġfilled": 5526,
      "Ġsongs": 5527,
      "Ġadopted": 5528,
      "Ġdepends": 5529,
      "Ġstruggle": 5530,
      "Ġextraordin": 5531,
      "Ġbalanced": 5532,
      "Ġprecise": 5533,
      "Ġgeys": 5534,
      "Ġhouses": 5535,
      "ĠNEWS": 5536,
      "Plus": 5537,
      "ĠBrett": 5538,
      "Ġchemical": 5539,
      "Ġstimulus": 5540,
      "Ġbureauc": 5541,
      "Ġtherapy": 5542,
      "Ġbreath": 5543,
      "ĠRadio": 5544,
      "ĠMORNING": 5545,
      "ĠBaghdad": 5546,
      "39": 5547,
      "Cor": 5548,
      "RIS": 5549,
      "eight": 5550,
      "hib": 5551,
      "huh": 5552,
      "iest": 5553,
      "ios": 5554,
      "makers": 5555,
      "song": 5556,
      "ym": 5557,
      "eres": 5558,
      "erved": 5559,
      "Ġwow": 5560,
      "Ġtheory": 5561,
      "Ġsize": 5562,
      "Ġfirm": 5563,
      "oms": 5564,
      "icip": 5565,
      "etor": 5566,
      "Ġdoors": 5567,
      "Ġstun": 5568,
      "aming": 5569,
      "illage": 5570,
      "Ġwithd": 5571,
      "ads": 5572,
      "ĠST": 5573,
      "ĠSw": 5574,
      "ĠServ": 5575,
      "Ġshock": 5576,
      "Ġshape": 5577,
      "Ġnoticed": 5578,
      "ĠAIR": 5579,
      "Ġaspect": 5580,
      "ĠMorm": 5581,
      "eek": 5582,
      "ĠBannon": 5583,
      "ĠRed": 5584,
      "ĠRub": 5585,
      "Ġchairman": 5586,
      "ĠHouston": 5587,
      "Ġproof": 5588,
      "ulate": 5589,
      "artin": 5590,
      "Ġsumm": 5591,
      "Ġalt": 5592,
      "Ġexit": 5593,
      "ĠTal": 5594,
      "ĠTri": 5595,
      "aped": 5596,
      "eless": 5597,
      "ĠOff": 5598,
      "iven": 5599,
      "nings": 5600,
      "ĠYear": 5601,
      "abe": 5602,
      "Ġactor": 5603,
      "Ġactive": 5604,
      "Ġbrings": 5605,
      "ĠChaz": 5606,
      "Ġcourts": 5607,
      "Ġappropriate": 5608,
      "Ġfeelings": 5609,
      "Ġhelicop": 5610,
      "Ġpolitically": 5611,
      "Ġsorts": 5612,
      "Ġstands": 5613,
      "Ġcorru": 5614,
      "Ġassess": 5615,
      "ĠMarine": 5616,
      "Ġentertain": 5617,
      "Ġedge": 5618,
      "Ġcovering": 5619,
      "Ġsituations": 5620,
      "Ġbroken": 5621,
      "Ġfollowed": 5622,
      "Ġconvince": 5623,
      "Ġdistin": 5624,
      "Ġrelationships": 5625,
      "Ġeasily": 5626,
      "Ġcomplex": 5627,
      "Ġpieces": 5628,
      "Everything": 5629,
      "Shes": 5630,
      "Ġdevelopment": 5631,
      "ĠGoogle": 5632,
      "Ġmainstream": 5633,
      "ĠPalin": 5634,
      "ennifer": 5635,
      "Ġadmitted": 5636,
      "Ġdeeply": 5637,
      "ellowstone": 5638,
      "ĠEuropean": 5639,
      "Ġpushed": 5640,
      "ĠMinnes": 5641,
      "Ġdetective": 5642,
      "Ġdetectives": 5643,
      "Ġcontroversy": 5644,
      "Ġlargest": 5645,
      "Ġreligious": 5646,
      "Ġmodel": 5647,
      "Ġarchbishop": 5648,
      "Ġinstitution": 5649,
      "Before": 5650,
      "Ġfantastic": 5651,
      "ĠCouncil": 5652,
      "Ġcompromise": 5653,
      "Ġsplit": 5654,
      "ALLIE": 5655,
      "Ġrescue": 5656,
      "nesty": 5657,
      "Ġclothes": 5658,
      "Ġdomestic": 5659,
      "ĠBAKERT": 5660,
      "ĠFRESH": 5661,
      "ĠIreland": 5662,
      "Ġcorruption": 5663,
      "ĠMinnesota": 5664,
      "FK": 5665,
      "Four": 5666,
      "Ge": 5667,
      "LA": 5668,
      "Other": 5669,
      "aed": 5670,
      "aving": 5671,
      "power": 5672,
      "rit": 5673,
      "rant": 5674,
      "rie": 5675,
      "vention": 5676,
      "Ġtennis": 5677,
      "inn": 5678,
      "inced": 5679,
      "ita": 5680,
      "itarian": 5681,
      "Ġcry": 5682,
      "orse": 5683,
      "Ġmouth": 5684,
      "Ġped": 5685,
      "anes": 5686,
      "Ġfans": 5687,
      "Ġfought": 5688,
      "Ġgall": 5689,
      "Ġbear": 5690,
      "Ġisol": 5691,
      "Ġwelfare": 5692,
      "acing": 5693,
      "Ġfort": 5694,
      "lymp": 5695,
      "ĠSol": 5696,
      "ĠSAT": 5697,
      "Ġjour": 5698,
      "thia": 5699,
      "oline": 5700,
      "Ġmeas": 5701,
      "Ġlikes": 5702,
      "Ġfright": 5703,
      "ĠPer": 5704,
      "ĠPeople": 5705,
      "While": 5706,
      "ĠNic": 5707,
      "ĠToday": 5708,
      "ĠLane": 5709,
      "Ġoffered": 5710,
      "ĠYellowstone": 5711,
      "Ġ28": 5712,
      "abinet": 5713,
      "Ġguests": 5714,
      "Ġbridge": 5715,
      "Ġprefer": 5716,
      "ĠVA": 5717,
      "Ġamnesty": 5718,
      "Ġwars": 5719,
      "Ġrelative": 5720,
      "Ġthoughts": 5721,
      "Ġconfident": 5722,
      "Ġcarried": 5723,
      "Ġbasket": 5724,
      "Ġharder": 5725,
      "irector": 5726,
      "Ġtests": 5727,
      "Ġtesting": 5728,
      "Ġbills": 5729,
      "Ġairpl": 5730,
      "Ġslight": 5731,
      "ĠConnie": 5732,
      "Ġrecords": 5733,
      "print": 5734,
      "Ġglass": 5735,
      "ĠCommission": 5736,
      "Ġarticle": 5737,
      "Ġcentury": 5738,
      "Ġbench": 5739,
      "ĠCambodian": 5740,
      "Ġproducts": 5741,
      "ĠSpeaker": 5742,
      "Excuse": 5743,
      "Ġnormally": 5744,
      "ynthia": 5745,
      "Ġconversations": 5746,
      "Ġridicul": 5747,
      "Ġcivilian": 5748,
      "Ġlabel": 5749,
      "Ġhonestly": 5750,
      "ĠAmendment": 5751,
      "ĠBrook": 5752,
      "Ġappearance": 5753,
      "Ġspoken": 5754,
      "ĠMoore": 5755,
      "ĠLouis": 5756,
      "Ġcertific": 5757,
      "Ġspokesman": 5758,
      "Ġdramatic": 5759,
      "Ġcasualties": 5760,
      "Ġskept": 5761,
      "Ġcoalition": 5762,
      "ĠDecember": 5763,
      "ĠMILLS": 5764,
      "55": 5765,
      "57": 5766,
      "Father": 5767,
      "Gu": 5768,
      "Get": 5769,
      "Over": 5770,
      "UT": 5771,
      "gu": 5772,
      "kin": 5773,
      "mon": 5774,
      "vy": 5775,
      "yc": 5776,
      "Ġsight": 5777,
      "Ġsession": 5778,
      "atory": 5779,
      "real": 5780,
      "Ġbond": 5781,
      "Ġcat": 5782,
      "Ġpurch": 5783,
      "Ġpapers": 5784,
      "Ġfat": 5785,
      "Ġfool": 5786,
      "Ġdaily": 5787,
      "Ġnurs": 5788,
      "arter": 5789,
      "Ġwheel": 5790,
      "ĠInt": 5791,
      "ĠIns": 5792,
      "Ġwebs": 5793,
      "acle": 5794,
      "sters": 5795,
      "Ġanger": 5796,
      "ecca": 5797,
      "ĠAmb": 5798,
      "ĠMonica": 5799,
      "Ġconce": 5800,
      "ĠPitt": 5801,
      "ĠPBS": 5802,
      "Ġtrillion": 5803,
      "ĠRob": 5804,
      "Ġchamp": 5805,
      "Ġchef": 5806,
      "ĠHere": 5807,
      "ĠHey": 5808,
      "Ġoutrage": 5809,
      "ulated": 5810,
      "Ġlog": 5811,
      "ĠTime": 5812,
      "ĠGib": 5813,
      "ĠWait": 5814,
      "ĠOlymp": 5815,
      "bles": 5816,
      "ivity": 5817,
      "Ġintegr": 5818,
      "Ġunit": 5819,
      "Ġcoast": 5820,
      "Ġpartner": 5821,
      "Ġbrand": 5822,
      "ending": 5823,
      "hner": 5824,
      "Ġbelief": 5825,
      "Ġsuppose": 5826,
      "Ġtele": 5827,
      "Ġplayer": 5828,
      "grad": 5829,
      "Ġdesper": 5830,
      "ĠNewsHour": 5831,
      "Ġtaxpay": 5832,
      "Ġsubstant": 5833,
      "Ġinstru": 5834,
      "ĠCarl": 5835,
      "ĠCarter": 5836,
      "Ġedition": 5837,
      "Ġlesson": 5838,
      "Ġlessons": 5839,
      "Ġadvoc": 5840,
      "Ġlocation": 5841,
      "Ġinvolve": 5842,
      "Ġbombing": 5843,
      "Ġhotel": 5844,
      "Ġrequired": 5845,
      "Ġestim": 5846,
      "Ġdevelopments": 5847,
      "Ġopportun": 5848,
      "Ġprimaries": 5849,
      "Ġmotiv": 5850,
      "Ġterrorist": 5851,
      "Ġpotentially": 5852,
      "Ġemployees": 5853,
      "ĠArabia": 5854,
      "Ġharass": 5855,
      "Ġopposite": 5856,
      "Ġmodern": 5857,
      "Ġpunish": 5858,
      "Trump": 5859,
      "Ġpenal": 5860,
      "Ġsector": 5861,
      "Ġoccurred": 5862,
      "ĠHamas": 5863,
      "Ġrestaurant": 5864,
      "arnell": 5865,
      "Ġconclusion": 5866,
      "belie": 5867,
      "Ġvirtually": 5868,
      "Ġchecks": 5869,
      "Ġsurface": 5870,
      "Ġtorture": 5871,
      "orneys": 5872,
      "ĠRomanian": 5873,
      "Twenty": 5874,
      "Ġathlet": 5875,
      "ĠCruz": 5876,
      "quarters": 5877,
      "27": 5878,
      "51": 5879,
      "500": 5880,
      "AD": 5881,
      "AY": 5882,
      "EC": 5883,
      "Fred": 5884,
      "Gorbachev": 5885,
      "Jim": 5886,
      "KE": 5887,
      "Mich": 5888,
      "MER": 5889,
      "OS": 5890,
      "Per": 5891,
      "Pat": 5892,
      "RI": 5893,
      "cu": 5894,
      "fe": 5895,
      "house": 5896,
      "known": 5897,
      "nel": 5898,
      "olyn": 5899,
      "run": 5900,
      "ube": 5901,
      "Ġwan": 5902,
      "atically": 5903,
      "Ġhire": 5904,
      "ingrich": 5905,
      "Ġbath": 5906,
      "Ġboss": 5907,
      "Ġcow": 5908,
      "Ġoption": 5909,
      "org": 5910,
      "orced": 5911,
      "Ġmer": 5912,
      "Ġmile": 5913,
      "Ġmamm": 5914,
      "Ġpounds": 5915,
      "Ġfisc": 5916,
      "Ġdance": 5917,
      "Ġnorth": 5918,
      "Ġlaug": 5919,
      "Ġgreen": 5920,
      "icient": 5921,
      "alys": 5922,
      "Ġitems": 5923,
      "Ġstake": 5924,
      "Ġstations": 5925,
      "ĠAaron": 5926,
      "ĠMu": 5927,
      "cean": 5928,
      "Ġlies": 5929,
      "ieutenant": 5930,
      "ĠHome": 5931,
      "anda": 5932,
      "ĠJen": 5933,
      "ĠJul": 5934,
      "ĠJerry": 5935,
      "Ġsaved": 5936,
      "Ġalb": 5937,
      "osh": 5938,
      "osure": 5939,
      "unk": 5940,
      "ĠGingrich": 5941,
      "ĠKen": 5942,
      "ĠKate": 5943,
      "Ġspace": 5944,
      "Ġpled": 5945,
      "Ġplenty": 5946,
      "ĠLough": 5947,
      "raf": 5948,
      "raw": 5949,
      "Ġimpl": 5950,
      "berly": 5951,
      "ipe": 5952,
      "iple": 5953,
      "Ġclin": 5954,
      "Ġacting": 5955,
      "assy": 5956,
      "portation": 5957,
      "Ġdism": 5958,
      "Ġletting": 5959,
      "Ġrecru": 5960,
      "iane": 5961,
      "Ġphr": 5962,
      "Ġfinished": 5963,
      "cerpt": 5964,
      "Ġimpression": 5965,
      "venue": 5966,
      "ixon": 5967,
      "Ġsymb": 5968,
      "Ġ500": 5969,
      "while": 5970,
      "Ġpriest": 5971,
      "Ġretail": 5972,
      "Ġinstruct": 5973,
      "Ġreferend": 5974,
      "Ġconvention": 5975,
      "Ġconvinced": 5976,
      "Nothing": 5977,
      "Ġeffects": 5978,
      "Ġcritics": 5979,
      "Ġpromised": 5980,
      "Ġembry": 5981,
      "Ġentirely": 5982,
      "Ġanticip": 5983,
      "Ġscenes": 5984,
      "Ġsuspects": 5985,
      "Ġhopes": 5986,
      "Ġsurvive": 5987,
      "ĠMinister": 5988,
      "Ġsurprising": 5989,
      "Ġallegedly": 5990,
      "Ġdocumentary": 5991,
      "Ġidentify": 5992,
      "Ġconclud": 5993,
      "Ġpleasure": 5994,
      "Ġadditional": 5995,
      "Ġadviser": 5996,
      "Ġgambling": 5997,
      "ĠAttorney": 5998,
      "Ġpermanent": 5999,
      "Ġelements": 6000,
      "Ġaggressive": 6001,
      "Ġglobal": 6002,
      "ĠCatholic": 6003,
      "Ġensure": 6004,
      "Ġrhetor": 6005,
      "songas": 6006,
      "Ġjourney": 6007,
      "Ġlaughing": 6008,
      "ĠLoughner": 6009,
      "Ġreferendum": 6010,
      "Pel": 6011,
      "cin": 6012,
      "cious": 6013,
      "hod": 6014,
      "krain": 6015,
      "oh": 6016,
      "right": 6017,
      "rman": 6018,
      "Ġut": 6019,
      "Ġtact": 6020,
      "Ġtask": 6021,
      "Ġthirty": 6022,
      "onents": 6023,
      "itable": 6024,
      "Ġcore": 6025,
      "Ġobl": 6026,
      "Ġmad": 6027,
      "Ġmap": 6028,
      "ano": 6029,
      "Ġinapp": 6030,
      "asy": 6031,
      "Ġgain": 6032,
      "omov": 6033,
      "vey": 6034,
      "owa": 6035,
      "alia": 6036,
      "usiness": 6037,
      "acity": 6038,
      "Ġgoals": 6039,
      "road": 6040,
      "alls": 6041,
      "kel": 6042,
      "ĠCome": 6043,
      "ĠCross": 6044,
      "iral": 6045,
      "ĠSl": 6046,
      "Ġabsolute": 6047,
      "Ġjugg": 6048,
      "ĠAc": 6049,
      "ĠMen": 6050,
      "ĠMitch": 6051,
      "ĠMartin": 6052,
      "olf": 6053,
      "iled": 6054,
      "ĠPress": 6055,
      "ĠPage": 6056,
      "Ġtragic": 6057,
      "ĠRock": 6058,
      "ĠHost": 6059,
      "ĠHann": 6060,
      "andon": 6061,
      "ĠNev": 6062,
      "Ġvision": 6063,
      "ĠKaren": 6064,
      "Ġplus": 6065,
      "Ġarmed": 6066,
      "Ġselect": 6067,
      "iable": 6068,
      "ildren": 6069,
      "Ġresistance": 6070,
      "Ġrecovery": 6071,
      "ĠVal": 6072,
      "tyomov": 6073,
      "Ġblue": 6074,
      "Ġcamps": 6075,
      "Ġmedicine": 6076,
      "Ġconfirmed": 6077,
      "Ġdeserve": 6078,
      "Ġunderstood": 6079,
      "Ġinvestigate": 6080,
      "Ġheaded": 6081,
      "Ġretire": 6082,
      "Ġretired": 6083,
      "ELLI": 6084,
      "idden": 6085,
      "Ġhumor": 6086,
      "ĠChristian": 6087,
      "phy": 6088,
      "clock": 6089,
      "Ġsenators": 6090,
      "Ġ800": 6091,
      "Ġterrific": 6092,
      "Ġshortly": 6093,
      "Ġprisoner": 6094,
      "Ġcreating": 6095,
      "Ġweapon": 6096,
      "Ġfully": 6097,
      "Ġproduction": 6098,
      "Ġfailure": 6099,
      "ĠBlack": 6100,
      "Ġlawsuit": 6101,
      "Ġpresented": 6102,
      "ynn": 6103,
      "Ġdraft": 6104,
      "Americans": 6105,
      "Ġcommander": 6106,
      "Ġ1980": 6107,
      "Ġversus": 6108,
      "Ġcelebrity": 6109,
      "Ġtempor": 6110,
      "Ġcongressional": 6111,
      "uhrman": 6112,
      "Ġdiagn": 6113,
      "Ġoptim": 6114,
      "Ġreligion": 6115,
      "Ġinjured": 6116,
      "Ġadults": 6117,
      "Ġsilence": 6118,
      "Ġsuperv": 6119,
      "Ġinspector": 6120,
      "Ġadoption": 6121,
      "Ġproceedings": 6122,
      "Ġdozen": 6123,
      "Ġannouncement": 6124,
      "Ġachieve": 6125,
      "Ġlobby": 6126,
      "Ġexercise": 6127,
      "ĠLeslie": 6128,
      "JOHN": 6129,
      "Ġcustomers": 6130,
      "ĠCommandments": 6131,
      "Ġconspiracy": 6132,
      "Ġvulner": 6133,
      "Actually": 6134,
      "ĠCounty": 6135,
      "Ġextraordinary": 6136,
      "Ġwebsite": 6137,
      "Ġopportunities": 6138,
      "alysis": 6139,
      "BA": 6140,
      "Comm": 6141,
      "Ear": 6142,
      "Mar": 6143,
      "NE": 6144,
      "Off": 6145,
      "TA": 6146,
      "Time": 6147,
      "TER": 6148,
      "VID": 6149,
      "bing": 6150,
      "dri": 6151,
      "fess": 6152,
      "just": 6153,
      "kins": 6154,
      "pired": 6155,
      "sch": 6156,
      "war": 6157,
      "yd": 6158,
      "Ġerr": 6159,
      "Ġsoph": 6160,
      "Ġbother": 6161,
      "Ġbuck": 6162,
      "Ġbatt": 6163,
      "Ġmarg": 6164,
      "Ġpure": 6165,
      "Ġdow": 6166,
      "arm": 6167,
      "Ġlunch": 6168,
      "icials": 6169,
      "ĠIr": 6170,
      "lein": 6171,
      "Ġisland": 6172,
      "etime": 6173,
      "Ġeating": 6174,
      "imming": 6175,
      "rol": 6176,
      "stance": 6177,
      "ĠCom": 6178,
      "ĠSal": 6179,
      "ĠSaw": 6180,
      "Ġrum": 6181,
      "Ġrating": 6182,
      "Ġjoke": 6183,
      "ĠMil": 6184,
      "urse": 6185,
      "antage": 6186,
      "ĠBible": 6187,
      "ĠRos": 6188,
      "ĠRush": 6189,
      "Ġchosen": 6190,
      "ĠDor": 6191,
      "ĠJennifer": 6192,
      "ĠJFK": 6193,
      "Ġvast": 6194,
      "Ġexcl": 6195,
      "ĠTim": 6196,
      "ĠGirl": 6197,
      "ĠFuhrman": 6198,
      "elled": 6199,
      "ĠLew": 6200,
      "Ġmanager": 6201,
      "Ġactions": 6202,
      "Ġresident": 6203,
      "Ġcourage": 6204,
      "awn": 6205,
      "Ġcauses": 6206,
      "Ġscr": 6207,
      "Ġscary": 6208,
      "Ġremoved": 6209,
      "play": 6210,
      "olds": 6211,
      "ĠAndre": 6212,
      "Ġimpress": 6213,
      "RES": 6214,
      "Ġreput": 6215,
      "Ġrepublic": 6216,
      "Ġbegun": 6217,
      "Ġinvestment": 6218,
      "Ġsites": 6219,
      "Ġhopeful": 6220,
      "Ġtransit": 6221,
      "Ġtranspl": 6222,
      "Ġtopic": 6223,
      "Ġdeputy": 6224,
      "ĠRussians": 6225,
      "Ġorganized": 6226,
      "Ġterrit": 6227,
      "Ġordered": 6228,
      "Ġwrites": 6229,
      "ebecca": 6230,
      "Ġprotection": 6231,
      "Ġviolent": 6232,
      "Ġsuggesting": 6233,
      "Ġdeveloped": 6234,
      "ĠIranian": 6235,
      "Ġtypical": 6236,
      "Ġcondem": 6237,
      "Ġreduce": 6238,
      "Ġruled": 6239,
      "Ġcompetitive": 6240,
      "ĠSpitzer": 6241,
      "lined": 6242,
      "Ġaddressed": 6243,
      "Ġborders": 6244,
      "Ġmotive": 6245,
      "Ġterrorists": 6246,
      "addy": 6247,
      "Ġtraum": 6248,
      "Ġbriefing": 6249,
      "Clinton": 6250,
      "ĠCanada": 6251,
      "Ġaccusations": 6252,
      "Ġdiplomatic": 6253,
      "Ġnegotiations": 6254,
      "ĠKelly": 6255,
      "ĠWeek": 6256,
      "ĠThanksgiving": 6257,
      "Ġcorporate": 6258,
      "ĠHunter": 6259,
      "ĠHonor": 6260,
      "ĠFourth": 6261,
      "Ġridiculous": 6262,
      "Ġcertificate": 6263,
      "Ġdownt": 6264,
      "17": 6265,
      "MAN": 6266,
      "Pol": 6267,
      "SALLIE": 6268,
      "Uh": 6269,
      "bably": 6270,
      "oley": 6271,
      "ronic": 6272,
      "two": 6273,
      "uits": 6274,
      "west": 6275,
      "Ġidentified": 6276,
      "Ġtill": 6277,
      "Ġwa": 6278,
      "Ġbip": 6279,
      "Ġpatter": 6280,
      "Ġfault": 6281,
      "Ġgang": 6282,
      "ĠId": 6283,
      "ĠIowa": 6284,
      "imid": 6285,
      "Ġheal": 6286,
      "Ġstores": 6287,
      "adem": 6288,
      "Ġshared": 6289,
      "Ġug": 6290,
      "ĠAuthor": 6291,
      "ĠMuller": 6292,
      "ested": 6293,
      "pper": 6294,
      "Ġconstruct": 6295,
      "ĠBecause": 6296,
      "ĠPac": 6297,
      "ĠPublic": 6298,
      "ctor": 6299,
      "aint": 6300,
      "ĠRonald": 6301,
      "ĠDow": 6302,
      "ĠDirector": 6303,
      "ĠNixon": 6304,
      "quake": 6305,
      "Ġneut": 6306,
      "arden": 6307,
      "ĠFore": 6308,
      "ĠWestern": 6309,
      "Ġplaced": 6310,
      "ĠUkrain": 6311,
      "Ġsevere": 6312,
      "Ġpromin": 6313,
      "Ġclimate": 6314,
      "Ġinterrog": 6315,
      "Ġinvited": 6316,
      "Ġscan": 6317,
      "Ġthrown": 6318,
      "Ġmostly": 6319,
      "erald": 6320,
      "Ġdifferences": 6321,
      "Ġmonitor": 6322,
      "Ġplanes": 6323,
      "argo": 6324,
      "Ġheadquarters": 6325,
      "rison": 6326,
      "ĠCarolyn": 6327,
      "Ġanswered": 6328,
      "Ġlocked": 6329,
      "Ġclosely": 6330,
      "Ġmissed": 6331,
      "Ġapproved": 6332,
      "Ġ2016": 6333,
      "ructure": 6334,
      "SHARON": 6335,
      "Ġdisappear": 6336,
      "ĠRights": 6337,
      "Ġtemper": 6338,
      "ĠPalestinians": 6339,
      "Ġoptions": 6340,
      "Ġappointed": 6341,
      "Ġordin": 6342,
      "Ġorders": 6343,
      "ĠWilliams": 6344,
      "Ġminority": 6345,
      "Ġcomfortable": 6346,
      "Ġproposal": 6347,
      "Ġschedul": 6348,
      "ĠGermany": 6349,
      "ĠTeam": 6350,
      "Ġlegitimate": 6351,
      "imbaugh": 6352,
      "Ġvolunteer": 6353,
      "Ġnarrow": 6354,
      "Ġfascin": 6355,
      "Ġjeans": 6356,
      "Ġguarantee": 6357,
      "Ġsatisf": 6358,
      "Steve": 6359,
      "Ġresources": 6360,
      "Ġsurvivors": 6361,
      "ĠRubio": 6362,
      "believable": 6363,
      "Ġrhetoric": 6364,
      "According": 6365,
      "Could": 6366,
      "Dan": 6367,
      "Got": 6368,
      "Happy": 6369,
      "Paul": 6370,
      "equ": 6371,
      "gage": 6372,
      "hal": 6373,
      "ki": 6374,
      "ping": 6375,
      "ron": 6376,
      "wr": 6377,
      "was": 6378,
      "week": 6379,
      "xic": 6380,
      "Ġ@": 6381,
      "Ġtea": 6382,
      "Ġwaters": 6383,
      "onent": 6384,
      "itation": 6385,
      "Ġbarely": 6386,
      "Ġcul": 6387,
      "Ġtool": 6388,
      "Ġmaster": 6389,
      "Ġpock": 6390,
      "Ġfence": 6391,
      "Ġfulf": 6392,
      "Ġneck": 6393,
      "Ġinher": 6394,
      "Ġinfr": 6395,
      "arity": 6396,
      "asters": 6397,
      "Ġreh": 6398,
      "verse": 6399,
      "Ġkiss": 6400,
      "ams": 6401,
      "roc": 6402,
      "stead": 6403,
      "ĠCEO": 6404,
      "iller": 6405,
      "illips": 6406,
      "Ġanch": 6407,
      "aded": 6408,
      "ĠSe": 6409,
      "ĠSqu": 6410,
      "Ġrow": 6411,
      "Ġshopp": 6412,
      "tered": 6413,
      "ĠAC": 6414,
      "ĠAsh": 6415,
      "ĠMid": 6416,
      "ĠMeg": 6417,
      "urn": 6418,
      "ĠBet": 6419,
      "ĠBoard": 6420,
      "Ġtraff": 6421,
      "ĠRose": 6422,
      "ĠHur": 6423,
      "essed": 6424,
      "ĠNation": 6425,
      "ĠNob": 6426,
      "ĠNorthern": 6427,
      "oking": 6428,
      "Ġ\"?": 6429,
      "ĠTucker": 6430,
      "ĠTsongas": 6431,
      "ĠGreat": 6432,
      "ĠKe": 6433,
      "ective": 6434,
      "eline": 6435,
      "eller": 6436,
      "ĠLee": 6437,
      "ĠLead": 6438,
      "oster": 6439,
      "Ġquarter": 6440,
      "Ġcoupl": 6441,
      "uren": 6442,
      "Ġintimid": 6443,
      "Ġoverall": 6444,
      "Ġoffensive": 6445,
      "Ġuns": 6446,
      "Ġunable": 6447,
      "Ġclot": 6448,
      "Ġclip": 6449,
      "Ġpartisan": 6450,
      "ĠEm": 6451,
      "vile": 6452,
      "Ġbrut": 6453,
      "Ġbrown": 6454,
      "Ġbrothers": 6455,
      "Ġdish": 6456,
      "Ġlets": 6457,
      "Ġputs": 6458,
      "Ġattorneys": 6459,
      "Ġwarm": 6460,
      "Ġsecure": 6461,
      "Ġdefeat": 6462,
      "cont": 6463,
      "Ġflat": 6464,
      "azel": 6465,
      "Ġlegacy": 6466,
      "Ġassass": 6467,
      "Ġassistance": 6468,
      "Ġfoundation": 6469,
      "Ġinvestigations": 6470,
      "Ġoffices": 6471,
      "ĠMarsh": 6472,
      "ĠMarines": 6473,
      "Ġprivile": 6474,
      "ologist": 6475,
      "Ġtestify": 6476,
      "ĠIsland": 6477,
      "Ġtranscript": 6478,
      "Ġprotests": 6479,
      "Ġbegins": 6480,
      "Ġairport": 6481,
      "Ġmarkets": 6482,
      "Ġdeaths": 6483,
      "Ġforecl": 6484,
      "Ġattacked": 6485,
      "ledge": 6486,
      "ĠInstitute": 6487,
      "Ġdemocrat": 6488,
      "Ġmessages": 6489,
      "Ġproviding": 6490,
      "Ġsugar": 6491,
      "Ġburied": 6492,
      "ĠWarren": 6493,
      "Char": 6494,
      "ĠGramm": 6495,
      "Ġprisoners": 6496,
      "Ġmurdered": 6497,
      "Ġlights": 6498,
      "Ġ1994": 6499,
      "Ġdrawn": 6500,
      "Ġengage": 6501,
      "Ġefforts": 6502,
      "ĠTHIS": 6503,
      "Ġbriefly": 6504,
      "Ġcitizen": 6505,
      "Ġphysically": 6506,
      "ography": 6507,
      "Ġcells": 6508,
      "ĠBrooke": 6509,
      "Ġcongressman": 6510,
      "Ġprofessor": 6511,
      "Ġbelow": 6512,
      "Ġzero": 6513,
      "Ġveteran": 6514,
      "Ġenemies": 6515,
      "Ġproduced": 6516,
      "Ġbalance": 6517,
      "Ġearthquake": 6518,
      "Ġencourage": 6519,
      "Ġethn": 6520,
      "Ġtanks": 6521,
      "Ġwealthy": 6522,
      "Ġcaptured": 6523,
      "Ġroutine": 6524,
      "ĠJewish": 6525,
      "Congressman": 6526,
      "Ġalternative": 6527,
      "Ġfarmers": 6528,
      "Ġeru": 6529,
      "Ġrejected": 6530,
      "ĠWilson": 6531,
      "Ġpregnant": 6532,
      "Ġlicense": 6533,
      "Michael": 6534,
      "Pelage": 6535,
      "Ġinappropriate": 6536,
      "ĠNevada": 6537,
      "Ġbipart": 6538,
      "'?": 6539,
      "49": 6540,
      "Ad": 6541,
      "Ah": 6542,
      "BO": 6543,
      "OT": 6544,
      "Ted": 6545,
      "ahn": 6546,
      "coming": 6547,
      "lies": 6548,
      "look": 6549,
      "pe": 6550,
      "uis": 6551,
      "wide": 6552,
      "eration": 6553,
      "Ġwise": 6554,
      "Ġtoler": 6555,
      "Ġfab": 6556,
      "Ġdomin": 6557,
      "Ġdaught": 6558,
      "Ġduty": 6559,
      "Ġnav": 6560,
      "Ġinaug": 6561,
      "ario": 6562,
      "asm": 6563,
      "asury": 6564,
      "Ġgift": 6565,
      "icial": 6566,
      "leen": 6567,
      "uted": 6568,
      "Ġforty": 6569,
      "Ġwasnt": 6570,
      "Ġstab": 6571,
      "Ġsteal": 6572,
      "state": 6573,
      "ĠCO": 6574,
      "ĠCub": 6575,
      "ĠComp": 6576,
      "ĠSu": 6577,
      "ĠSylv": 6578,
      "Ġrally": 6579,
      "Ġjoy": 6580,
      "ĠAle": 6581,
      "ĠAff": 6582,
      "ĠMe": 6583,
      "oles": 6584,
      "uries": 6585,
      "antly": 6586,
      "gel": 6587,
      "ilos": 6588,
      "Ġconsequ": 6589,
      "ĠBy": 6590,
      "ĠPan": 6591,
      "isting": 6592,
      "ĠRebecca": 6593,
      "Ġchea": 6594,
      "Ġchair": 6595,
      "ĠDe": 6596,
      "ĠJac": 6597,
      "Ġvo": 6598,
      "ĠTer": 6599,
      "ĠTony": 6600,
      "ĠTiger": 6601,
      "oses": 6602,
      "ĠGary": 6603,
      "ĠForce": 6604,
      "Ġagency": 6605,
      "Ġplot": 6606,
      "ĠLord": 6607,
      "ĠLimbaugh": 6608,
      "rae": 6609,
      "ously": 6610,
      "ĠOur": 6611,
      "Ġintense": 6612,
      "Ġclock": 6613,
      "Ġclient": 6614,
      "Ġclub": 6615,
      "izes": 6616,
      "ĠEnd": 6617,
      "Ġexpand": 6618,
      "Ġacqu": 6619,
      "ĠChen": 6620,
      "Ġwrink": 6621,
      "vernment": 6622,
      "ĠRepresent": 6623,
      "Ġrealistic": 6624,
      "Ġcarefully": 6625,
      "Ġphilos": 6626,
      "Ġplays": 6627,
      "Ġimpro": 6628,
      "Ġdrama": 6629,
      "ilitary": 6630,
      "Ġelectric": 6631,
      "Ġregime": 6632,
      "ĠMaria": 6633,
      "Ġsexually": 6634,
      "apper": 6635,
      "Ġwinner": 6636,
      "Ġbehalf": 6637,
      "otten": 6638,
      "Ġexpectations": 6639,
      "Ġconvinc": 6640,
      "Ġprofession": 6641,
      "Ġsentenced": 6642,
      "Ġswitch": 6643,
      "Ġsolid": 6644,
      "Ġpromises": 6645,
      "Ġdiscussed": 6646,
      "Ġthreats": 6647,
      "Ġthreatened": 6648,
      "ylan": 6649,
      "Ġtomat": 6650,
      "CHRIS": 6651,
      "Everyone": 6652,
      "Ġspeed": 6653,
      "Ġlevels": 6654,
      "evin": 6655,
      "ĠCooper": 6656,
      "ĠCooley": 6657,
      "Ġ2010": 6658,
      "Ġmaintain": 6659,
      "Ġtypes": 6660,
      "Ġ1992": 6661,
      "Ġreforms": 6662,
      "Ġprepare": 6663,
      "DAM": 6664,
      "IDS": 6665,
      "isco": 6666,
      "Ġfocusing": 6667,
      "Ġengaged": 6668,
      "ALK": 6669,
      "Ġauto": 6670,
      "Ġlifetime": 6671,
      "Ġuncertain": 6672,
      "Ġrecognized": 6673,
      "Ġdefending": 6674,
      "Ġbottle": 6675,
      "Ġphysic": 6676,
      "Ġtorn": 6677,
      "ĠHoward": 6678,
      "Ġprayer": 6679,
      "Ġhello": 6680,
      "Ġconcert": 6681,
      "ĠPolit": 6682,
      "ĠPolice": 6683,
      "Ġslowly": 6684,
      "Ġtrucks": 6685,
      "Ġvehicles": 6686,
      "going": 6687,
      "Ġhistoric": 6688,
      "Ġpredict": 6689,
      "Ġscientists": 6690,
      "ĠSanders": 6691,
      "Ġcolumnist": 6692,
      "Ġestablishment": 6693,
      "Ġcommitment": 6694,
      "Ġlaunched": 6695,
      "ĠMurphy": 6696,
      "ĠParis": 6697,
      "Ġmultiple": 6698,
      "Ġstructure": 6699,
      "Ġrepeatedly": 6700,
      "Ġscreaming": 6701,
      "ĠPortland": 6702,
      "iciary": 6703,
      "Ġgrocer": 6704,
      "cellent": 6705,
      "Ġminimum": 6706,
      "Ġprecisely": 6707,
      "Ġwithdraw": 6708,
      "Ġalbum": 6709,
      "fessor": 6710,
      "Ġtraffic": 6711,
      "Ġethnic": 6712,
      "Ġdaughters": 6713,
      "ĠSylvia": 6714,
      "Ġconvincing": 6715,
      "28": 6716,
      "250": 6717,
      "Donald": 6718,
      "LAN": 6719,
      "Later": 6720,
      "Pr": 6721,
      "Sc": 6722,
      "gers": 6723,
      "gie": 6724,
      "here": 6725,
      "iance": 6726,
      "iors": 6727,
      "ipping": 6728,
      "iques": 6729,
      "ihad": 6730,
      "las": 6731,
      "mates": 6732,
      "table": 6733,
      "woman": 6734,
      "Ġtoug": 6735,
      "Ġtapes": 6736,
      "Ġais": 6737,
      "Ġwave": 6738,
      "Ġsink": 6739,
      "Ġsoul": 6740,
      "Ġhom": 6741,
      "Ġhide": 6742,
      "Ġbible": 6743,
      "Ġborrow": 6744,
      "Ġtoxic": 6745,
      "Ġmood": 6746,
      "Ġpill": 6747,
      "Ġpitch": 6748,
      "Ġpowers": 6749,
      "Ġdrove": 6750,
      "Ġloud": 6751,
      "ica": 6752,
      "ĠIS": 6753,
      "otes": 6754,
      "Ġeg": 6755,
      "Ġep": 6756,
      "Ġrein": 6757,
      "igger": 6758,
      "lders": 6759,
      "Ġstret": 6760,
      "roit": 6761,
      "ĠChe": 6762,
      "ĠCynthia": 6763,
      "illy": 6764,
      "illiant": 6765,
      "ĠSusan": 6766,
      "Ġrush": 6767,
      "Ġsharing": 6768,
      "terior": 6769,
      "they": 6770,
      "ĠAg": 6771,
      "Ġknowledge": 6772,
      "Ġwhatso": 6773,
      "eway": 6774,
      "geant": 6775,
      "Ġconcent": 6776,
      "Ġconcept": 6777,
      "ĠBel": 6778,
      "istant": 6779,
      "istry": 6780,
      "Whether": 6781,
      "Ġloves": 6782,
      "okes": 6783,
      "eauses": 6784,
      "ĠTre": 6785,
      "ĠTerry": 6786,
      "Ġupd": 6787,
      "ongratulations": 6788,
      "astics": 6789,
      "ĠFrench": 6790,
      "Ġheroes": 6791,
      "Ġspin": 6792,
      "elp": 6793,
      "ĠLieutenant": 6794,
      "action": 6795,
      "ĠUN": 6796,
      "Ġmanaged": 6797,
      "Ġsegment": 6798,
      "Ġovernight": 6799,
      "aked": 6800,
      "Ġsometime": 6801,
      "Ġunp": 6802,
      "Ġunits": 6803,
      "Ġunique": 6804,
      "Ġclients": 6805,
      "ports": 6806,
      "Ġbright": 6807,
      "Ġdiss": 6808,
      "Ġappe": 6809,
      "Ġrecall": 6810,
      "Ġbeings": 6811,
      "Ġamendment": 6812,
      "Ġscar": 6813,
      "Ġscale": 6814,
      "Ġattend": 6815,
      "Ġfactory": 6816,
      "Ġremote": 6817,
      "Ġending": 6818,
      "Ġendorse": 6819,
      "Ġconsum": 6820,
      "Ġ36": 6821,
      "Ġrelax": 6822,
      "Ġnightm": 6823,
      "aza": 6824,
      "Ġsmile": 6825,
      "Ġdifferently": 6826,
      "Ġsupports": 6827,
      "Ġinvestigating": 6828,
      "Ġunderstands": 6829,
      "Ġheading": 6830,
      "Ġregret": 6831,
      "Ġregulation": 6832,
      "Ġ45": 6833,
      "Ġ48": 6834,
      "Ġentit": 6835,
      "ĠMcV": 6836,
      "Ġdebris": 6837,
      "Ġleaves": 6838,
      "Ġbreaks": 6839,
      "Ġsubsid": 6840,
      "ĠFranc": 6841,
      "Ġstaying": 6842,
      "Ġstronger": 6843,
      "anna": 6844,
      "annel": 6845,
      "Ġexperiment": 6846,
      "Ġsounded": 6847,
      "Stay": 6848,
      "ĠCommunist": 6849,
      "Ġdiscussing": 6850,
      "ĠIsraelis": 6851,
      "Although": 6852,
      "cription": 6853,
      "Ġapartment": 6854,
      "ĠUSS": 6855,
      "Ġhostages": 6856,
      "Ġmagn": 6857,
      "Ġindustrial": 6858,
      "ĠSchumer": 6859,
      "Ġinternet": 6860,
      "Ġterrorism": 6861,
      "Ġseats": 6862,
      "Ġceleb": 6863,
      "Ġlift": 6864,
      "Ġproduce": 6865,
      "Ġrepresented": 6866,
      "ĠJanine": 6867,
      "Ġdeliber": 6868,
      "Anyway": 6869,
      "Ġpersu": 6870,
      "Ġremarks": 6871,
      "Ġultimate": 6872,
      "Ġthrowing": 6873,
      "Ġstruggling": 6874,
      "Ġcitizenship": 6875,
      "Ġpriority": 6876,
      "Ġsettlement": 6877,
      "Ġfrustration": 6878,
      "Ġhousing": 6879,
      "ĠLaDonna": 6880,
      "ĠLauren": 6881,
      "Second": 6882,
      "Ġgrabbed": 6883,
      "Ġschedule": 6884,
      "Ġtraditional": 6885,
      "Ġunlikely": 6886,
      "ĠDetroit": 6887,
      "Ġdetermined": 6888,
      "Ġqualified": 6889,
      "Ġportray": 6890,
      "Ġpoetry": 6891,
      "ĠLibya": 6892,
      "ĠMormon": 6893,
      "aeda": 6894,
      "Ġmeasures": 6895,
      "Ġbasketball": 6896,
      "Ġfiscal": 6897,
      "ĠHannity": 6898,
      "Ġreputation": 6899,
      "Ġcouples": 6900,
      "Ġtougher": 6901,
      "Ġwhatsoever": 6902,
      "eausescu": 6903,
      "DR": 6904,
      "Democrat": 6905,
      "During": 6906,
      "Ford": 6907,
      "HAN": 6908,
      "HER": 6909,
      "IL": 6910,
      "IM": 6911,
      "Miss": 6912,
      "Ne": 6913,
      "Never": 6914,
      "Peter": 6915,
      "Qu": 6916,
      "VE": 6917,
      "boy": 6918,
      "cient": 6919,
      "ele": 6920,
      "long": 6921,
      "mstr": 6922,
      "oom": 6923,
      "oil": 6924,
      "tained": 6925,
      "uate": 6926,
      "vard": 6927,
      "Ġing": 6928,
      "Ġ...": 6929,
      "Ġera": 6930,
      "Ġtiss": 6931,
      "eras": 6932,
      "eroy": 6933,
      "Ġwage": 6934,
      "rell": 6935,
      "Ġhyp": 6936,
      "Ġcards": 6937,
      "Ġtoll": 6938,
      "Ġtoile": 6939,
      "Ġmic": 6940,
      "Ġmal": 6941,
      "Ġpin": 6942,
      "Ġdy": 6943,
      "Ġder": 6944,
      "Ġdial": 6945,
      "Ġdict": 6946,
      "Ġnations": 6947,
      "Ġnurse": 6948,
      "oma": 6949,
      "icing": 6950,
      "Ġwhist": 6951,
      "idal": 6952,
      "Theres": 6953,
      "utto": 6954,
      "Ġheavi": 6955,
      "ĠCeausescu": 6956,
      "Ġanalysis": 6957,
      "adh": 6958,
      "adim": 6959,
      "ĠSome": 6960,
      "ĠSuc": 6961,
      "Ġring": 6962,
      "Ġshall": 6963,
      "Ġships": 6964,
      "Ġabandon": 6965,
      "ĠAIDS": 6966,
      "ĠMac": 6967,
      "uration": 6968,
      "Ġallied": 6969,
      "Ġwhoever": 6970,
      "Ġorg": 6971,
      "ĠRec": 6972,
      "ĠRog": 6973,
      "Ġchicken": 6974,
      "ĠDarnell": 6975,
      "Ġproven": 6976,
      "uls": 6977,
      "ĠNatal": 6978,
      "Ġbutton": 6979,
      "Ġvillage": 6980,
      "onel": 6981,
      "ĠTea": 6982,
      "ĠGre": 6983,
      "ĠGreg": 6984,
      "astructure": 6985,
      "Ġmyth": 6986,
      "emi": 6987,
      "ĠFaith": 6988,
      "ĠFein": 6989,
      "Ġusual": 6990,
      "elson": 6991,
      "ĠWa": 6992,
      "ĠWoods": 6993,
      "ĠWOMAN": 6994,
      "Ġplain": 6995,
      "ocaust": 6996,
      "intellig": 6997,
      "Ġevil": 6998,
      "Ġintended": 6999,
      "Ġ2000": 7000,
      "Ġcoff": 7001,
      "Ġacts": 7002,
      "Ġpartly": 7003,
      "ĠEastern": 7004,
      "Ġpool": 7005,
      "Ġworker": 7006,
      "Ġcompared": 7007,
      "angle": 7008,
      "Ġsupplies": 7009,
      "Instead": 7010,
      "Ġblast": 7011,
      "issa": 7012,
      "Ġgovernments": 7013,
      "Ġconsult": 7014,
      "ĠTrans": 7015,
      "ups": 7016,
      "ertainly": 7017,
      "liot": 7018,
      "azon": 7019,
      "Ġsymp": 7020,
      "Ġ400": 7021,
      "ĠMarco": 7022,
      "Ġfourth": 7023,
      "Ġenter": 7024,
      "Ġemail": 7025,
      "Ġwins": 7026,
      "Former": 7027,
      "ĠConnect": 7028,
      "ierre": 7029,
      "Ġinvolving": 7030,
      "ĠArk": 7031,
      "Ġprovision": 7032,
      "Ġcapacity": 7033,
      "ĠChristine": 7034,
      "Ġconviction": 7035,
      "ĠRoe": 7036,
      "Ġprofile": 7037,
      "Ġswing": 7038,
      "Ġskills": 7039,
      "Ġeffectively": 7040,
      "Ġdivorced": 7041,
      "Ġannivers": 7042,
      "Ġviolation": 7043,
      "Ġburned": 7044,
      "Ġpersonality": 7045,
      "Ġembargo": 7046,
      "Ġconsidering": 7047,
      "Ġtechniques": 7048,
      "Shuster": 7049,
      "Ġdeadline": 7050,
      "Ġincreases": 7051,
      "Ġcredible": 7052,
      "Ġlegislative": 7053,
      "Ġsocialism": 7054,
      "About": 7055,
      "Ġdestruct": 7056,
      "ĠBlake": 7057,
      "ables": 7058,
      "ĠPatrick": 7059,
      "Ġprimarily": 7060,
      "Ġopinions": 7061,
      "Republic": 7062,
      "Ġfaced": 7063,
      "ĠAsia": 7064,
      "ĠEdwards": 7065,
      "Ġracist": 7066,
      "ĠColumb": 7067,
      "Ġpanic": 7068,
      "Ġaccepted": 7069,
      "Ġidentity": 7070,
      "election": 7071,
      "Ġdreams": 7072,
      "Ġvariety": 7073,
      "ĠIndiana": 7074,
      "Ġcooperate": 7075,
      "Ġcustody": 7076,
      "ĠJudy": 7077,
      "ĠPetrae": 7078,
      "ĠCollins": 7079,
      "ĠKimberly": 7080,
      "Ġethics": 7081,
      "Ġdevastating": 7082,
      "Ġloyalty": 7083,
      "Ġcomedian": 7084,
      "Ġdigital": 7085,
      "Ġdelegates": 7086,
      "Ġintroduce": 7087,
      "Ġassociated": 7088,
      "ĠSmith": 7089,
      "ĠHispan": 7090,
      "Ġbureaucracy": 7091,
      "Ġnurses": 7092,
      "feld": 7093,
      "Ġphrase": 7094,
      "Ġoblig": 7095,
      "Ġdowntown": 7096,
      "ĠPacific": 7097,
      "Ġinfrastructure": 7098,
      "Ġclothing": 7099,
      "Ġdemocratic": 7100,
      "Ġphilosoph": 7101,
      "ĠMcVay": 7102,
      "mstrong": 7103,
      "intelligible": 7104,
      "ĠPetraeus": 7105,
      "100": 7106,
      "37": 7107,
      "AEL": 7108,
      "Congratulations": 7109,
      "Gr": 7110,
      "Give": 7111,
      "HY": 7112,
      "IAL": 7113,
      "Mean": 7114,
      "Number": 7115,
      "TS": 7116,
      "TAMARYN": 7117,
      "four": 7118,
      "mission": 7119,
      "pet": 7120,
      "ror": 7121,
      "Ġtim": 7122,
      "Ġtie": 7123,
      "Ġtone": 7124,
      "Ġtast": 7125,
      "Ġtears": 7126,
      "inally": 7127,
      "erves": 7128,
      "Ġwire": 7129,
      "Ġhi": 7130,
      "Ġhoney": 7131,
      "itors": 7132,
      "itious": 7133,
      "Ġbes": 7134,
      "Ġbone": 7135,
      "Ġcens": 7136,
      "orado": 7137,
      "Ġmos": 7138,
      "Ġpra": 7139,
      "Ġfiring": 7140,
      "Ġinqu": 7141,
      "Ġgar": 7142,
      "Ġgained": 7143,
      "Ġgender": 7144,
      "Ġgifts": 7145,
      "icer": 7146,
      "icating": 7147,
      "usi": 7148,
      "Ġrevers": 7149,
      "uting": 7150,
      "aco": 7151,
      "Ġstuck": 7152,
      "Ġstars": 7153,
      "standing": 7154,
      "ĠSex": 7155,
      "Ġrank": 7156,
      "Ġshame": 7157,
      "Ġabused": 7158,
      "through": 7159,
      "ĠApp": 7160,
      "ĠMot": 7161,
      "ĠMarg": 7162,
      "urry": 7163,
      "ched": 7164,
      "Ġmeat": 7165,
      "atever": 7166,
      "oren": 7167,
      "Ġconstit": 7168,
      "ĠBess": 7169,
      "ĠBerm": 7170,
      "ĠRE": 7171,
      "Ġcha": 7172,
      "ĠHaw": 7173,
      "ĠHash": 7174,
      "ĠHuman": 7175,
      "ĠDeb": 7176,
      "ander": 7177,
      "Ġvent": 7178,
      "ouglas": 7179,
      "Ġexact": 7180,
      "osition": 7181,
      "Ġwanting": 7182,
      "ĠKir": 7183,
      "apter": 7184,
      "ection": 7185,
      "Ġyours": 7186,
      "Ġspring": 7187,
      "uda": 7188,
      "ĠWolf": 7189,
      "Ġplat": 7190,
      "ĠLive": 7191,
      "Ġlean": 7192,
      "aganda": 7193,
      "Ġmanner": 7194,
      "iab": 7195,
      "reek": 7196,
      "ĠEn": 7197,
      "ĠEmm": 7198,
      "ĠStep": 7199,
      "Ġcaller": 7200,
      "ĠChairman": 7201,
      "ached": 7202,
      "order": 7203,
      "Ġapple": 7204,
      "pty": 7205,
      "Ġcruc": 7206,
      "angers": 7207,
      "Ġblank": 7208,
      "Ġlawmakers": 7209,
      "ibi": 7210,
      "Ġturkey": 7211,
      "atherine": 7212,
      "ĠClark": 7213,
      "Ġfinance": 7214,
      "Ġleads": 7215,
      "Ġkidding": 7216,
      "Ġsmoke": 7217,
      "Ġlegs": 7218,
      "Ġhandled": 7219,
      "Ġsets": 7220,
      "Ġadded": 7221,
      "attered": 7222,
      "Ġenth": 7223,
      "Ġfewer": 7224,
      "Ġhopefully": 7225,
      "Ġsystems": 7226,
      "Ġsuburb": 7227,
      "Ġemph": 7228,
      "Ġextended": 7229,
      "Ġwinter": 7230,
      "Ġrestrict": 7231,
      "Ġforens": 7232,
      "onym": 7233,
      "ova": 7234,
      "ĠShow": 7235,
      "ĠSharon": 7236,
      "Ġprovided": 7237,
      "Ġgirlfriend": 7238,
      "Ġdisturb": 7239,
      "Ġsenate": 7240,
      "Ġmethod": 7241,
      "Ġallows": 7242,
      "Ġsolved": 7243,
      "Ġmusical": 7244,
      "Ġpropert": 7245,
      "Ġmemo": 7246,
      "Ġmemory": 7247,
      "Ġradar": 7248,
      "Ġburning": 7249,
      "Ġclaiming": 7250,
      "Ġfigures": 7251,
      "Ġparade": 7252,
      "Ġsuggests": 7253,
      "Ġestate": 7254,
      "Ġcredibility": 7255,
      "Ġhurting": 7256,
      "Ġshots": 7257,
      "Ġliberals": 7258,
      "Ġpreparing": 7259,
      "DAVID": 7260,
      "Ġlargely": 7261,
      "Ġbabies": 7262,
      "Ġjournalism": 7263,
      "Ġscenario": 7264,
      "Ġpainful": 7265,
      "Ġpulling": 7266,
      "ĠJimmy": 7267,
      "Ġcommunications": 7268,
      "Ġdrag": 7269,
      "ĠAsian": 7270,
      "Ġfurious": 7271,
      "Ġactivities": 7272,
      "ĠColorado": 7273,
      "erring": 7274,
      "ĠProPelage": 7275,
      "Ġbedroom": 7276,
      "ĠExcerpt": 7277,
      "ĠForrest": 7278,
      "ĠMayor": 7279,
      "Ġemotion": 7280,
      "Ġpsychiat": 7281,
      "Ġproducer": 7282,
      "ĠInternational": 7283,
      "ĠNATION": 7284,
      "Obama": 7285,
      "Ġinitially": 7286,
      "Ambassador": 7287,
      "ĠSerb": 7288,
      "Ġscientific": 7289,
      "Ġcopy": 7290,
      "Ġrecommendations": 7291,
      "Artyomov": 7292,
      "Ġcontrolled": 7293,
      "Ġhanging": 7294,
      "Ġmanufacturing": 7295,
      "Ġdemonst": 7296,
      "Ġdisappointed": 7297,
      "ĠHolocaust": 7298,
      "MICHAEL": 7299,
      "ĠLatino": 7300,
      "Ġfirefighters": 7301,
      "Ġfundamental": 7302,
      "ixty": 7303,
      "ĠBrian": 7304,
      "Ġdeclared": 7305,
      "Ġtitle": 7306,
      "idelines": 7307,
      "ĠNigeria": 7308,
      "Ġdistinction": 7309,
      "George": 7310,
      "ĠIntelligence": 7311,
      "ĠAmbassador": 7312,
      "Ġtaxpayer": 7313,
      "ĠCruzan": 7314,
      "Communist": 7315,
      "Ġerror": 7316,
      "Ġbipartisan": 7317,
      "ĠISIS": 7318,
      "ĠConnectic": 7319,
      "ĠArkansas": 7320,
      "Ġanniversary": 7321,
      "ĠBermuda": 7322,
      "200": 7323,
      "Bar": 7324,
      "Car": 7325,
      "Certainly": 7326,
      "El": 7327,
      "Elect": 7328,
      "GB": 7329,
      "General": 7330,
      "Lynn": 7331,
      "RY": 7332,
      "TO": 7333,
      "VIN": 7334,
      "Woman": 7335,
      "bro": 7336,
      "dict": 7337,
      "has": 7338,
      "lish": 7339,
      "lav": 7340,
      "mother": 7341,
      "rid": 7342,
      "ĠX": 7343,
      "Ġtip": 7344,
      "Ġtiny": 7345,
      "Ġthrew": 7346,
      "iner": 7347,
      "inson": 7348,
      "Ġwing": 7349,
      "Ġwestern": 7350,
      "Ġsin": 7351,
      "Ġsamp": 7352,
      "Ġsli": 7353,
      "Ġhook": 7354,
      "Ġcere": 7355,
      "Ġmisc": 7356,
      "Ġpuzz": 7357,
      "Ġfaster": 7358,
      "Ġdivers": 7359,
      "Ġdirty": 7360,
      "Ġnin": 7361,
      "Ġbeating": 7362,
      "Ġbeef": 7363,
      "alian": 7364,
      "level": 7365,
      "otic": 7366,
      "otion": 7367,
      "ayle": 7368,
      "Ġweb": 7369,
      "Ġweird": 7370,
      "outs": 7371,
      "semb": 7372,
      "Ġsticking": 7373,
      "Ġstyle": 7374,
      "allie": 7375,
      "ĠCher": 7376,
      "ĠCast": 7377,
      "ĠCare": 7378,
      "ĠSur": 7379,
      "ĠSant": 7380,
      "ĠSara": 7381,
      "Ġrom": 7382,
      "Ġshift": 7383,
      "Ġshocking": 7384,
      "Ġnotes": 7385,
      "ĠMO": 7386,
      "ĠMer": 7387,
      "ĠMush": 7388,
      "ĠMik": 7389,
      "olt": 7390,
      "oda": 7391,
      "odd": 7392,
      "Ġlied": 7393,
      "ateg": 7394,
      "Ġfraud": 7395,
      "ĠBas": 7396,
      "ĠPower": 7397,
      "Ġtries": 7398,
      "aine": 7399,
      "earing": 7400,
      "ĠRay": 7401,
      "ĠRand": 7402,
      "ĠRuth": 7403,
      "Ġchose": 7404,
      "Ġchances": 7405,
      "ĠHO": 7406,
      "ĠDarl": 7407,
      "ĠJes": 7408,
      "Ġvig": 7409,
      "Ġali": 7410,
      "Youre": 7411,
      "osi": 7412,
      "ĠKopp": 7413,
      "Ġwhenever": 7414,
      "Ġuses": 7415,
      "Ġagrees": 7416,
      "elle": 7417,
      "Ġyearbook": 7418,
      "ĠLind": 7419,
      "rav": 7420,
      "ĠOf": 7421,
      "ĠOld": 7422,
      "Ġmanip": 7423,
      "Ġ23": 7424,
      "Ġunh": 7425,
      "Ġunintelligible": 7426,
      "Ġactress": 7427,
      "ĠEven": 7428,
      "ĠStan": 7429,
      "ugh": 7430,
      "Ġcounty": 7431,
      "Ġbrilliant": 7432,
      "Ġinternal": 7433,
      "achel": 7434,
      "Ġlethal": 7435,
      "ANK": 7436,
      "Ġprev": 7437,
      "Ġcares": 7438,
      "Ġroles": 7439,
      "athan": 7440,
      "anged": 7441,
      "Ġsupporter": 7442,
      "Ġblind": 7443,
      "othy": 7444,
      "iban": 7445,
      "ibilities": 7446,
      "Ġhomeless": 7447,
      "angel": 7448,
      "Ġimplement": 7449,
      "liament": 7450,
      "Ġdeals": 7451,
      "encing": 7452,
      "Ġfriendly": 7453,
      "Ġdiscl": 7454,
      "Ġdiscip": 7455,
      "Ġdiscrimin": 7456,
      "ĠMarc": 7457,
      "Ġcampaigns": 7458,
      "Ġpresum": 7459,
      "ahu": 7460,
      "exam": 7461,
      "ELINE": 7462,
      "Ġdepression": 7463,
      "ĠFront": 7464,
      "duction": 7465,
      "Ġlocker": 7466,
      "Ġsignal": 7467,
      "Ġrecorded": 7468,
      "Ġseniors": 7469,
      "bye": 7470,
      "Ġ75": 7471,
      "Ġarguments": 7472,
      "Ġpatri": 7473,
      "Ġdivide": 7474,
      "Ġoperate": 7475,
      "Ġnearby": 7476,
      "ĠAnthony": 7477,
      "ospital": 7478,
      "Ġpropaganda": 7479,
      "Ġillness": 7480,
      "Ġprotecting": 7481,
      "Ġprotected": 7482,
      "Ġmemor": 7483,
      "Ġmemories": 7484,
      "Ġequally": 7485,
      "Ġnominated": 7486,
      "Ġtroubled": 7487,
      "Ġdeadly": 7488,
      "Ġfalling": 7489,
      "Ġcompete": 7490,
      "Ġ1996": 7491,
      "Ġsupposedly": 7492,
      "Ġauthority": 7493,
      "Ġreceiving": 7494,
      "Ġaccountable": 7495,
      "Ġmassac": 7496,
      "anyahu": 7497,
      "afi": 7498,
      "Ġfacilities": 7499,
      "Ġmotion": 7500,
      "ĠPrince": 7501,
      "ciliation": 7502,
      "Ġlaying": 7503,
      "Ġapplied": 7504,
      "ĠBerg": 7505,
      "holders": 7506,
      "aska": 7507,
      "Ġcollection": 7508,
      "Something": 7509,
      "Ġcriticism": 7510,
      "Ġprojects": 7511,
      "ĠReid": 7512,
      "Probably": 7513,
      "proof": 7514,
      "Ġsensitive": 7515,
      "Ġgathered": 7516,
      "ĠSandra": 7517,
      "Ġholidays": 7518,
      "Ġprinciples": 7519,
      "ĠTurkey": 7520,
      "Ġreflection": 7521,
      "Ġunfair": 7522,
      "Ġdelivered": 7523,
      "Ġdozens": 7524,
      "Ġaccomplish": 7525,
      "Ġfingerprint": 7526,
      "Ġdemonstr": 7527,
      "ĠBraun": 7528,
      "Ġcontributor": 7529,
      "Ġreplaced": 7530,
      "Ġconstantly": 7531,
      "Ġincreasingly": 7532,
      "Ġapologized": 7533,
      "ĠService": 7534,
      "ĠTaliban": 7535,
      "ĠOffice": 7536,
      "ycle": 7537,
      "Ġdesperate": 7538,
      "Ġpenalty": 7539,
      "Ġathletes": 7540,
      "Ġtemporary": 7541,
      "Ġvulnerable": 7542,
      "Ġugly": 7543,
      "ĠForeign": 7544,
      "Ġshopping": 7545,
      "Ġaisle": 7546,
      "ĠBessette": 7547,
      "Ġenthusi": 7548,
      "ĠConnecticut": 7549,
      "sembly": 7550,
      "ĠKoppel": 7551,
      "AF": 7552,
      "Lea": 7553,
      "Mike": 7554,
      "PA": 7555,
      "Res": 7556,
      "Sam": 7557,
      "Simon": 7558,
      "Watch": 7559,
      "Yet": 7560,
      "aq": 7561,
      "crosstalk": 7562,
      "de": 7563,
      "fit": 7564,
      "ius": 7565,
      "lan": 7566,
      "oly": 7567,
      "oody": 7568,
      "uge": 7569,
      "uous": 7570,
      "vin": 7571,
      "yer": 7572,
      "zed": 7573,
      "Ġtun": 7574,
      "Ġtrench": 7575,
      "Ġthor": 7576,
      "Ġhug": 7577,
      "Ġhits": 7578,
      "Ġhidden": 7579,
      "Ġcateg": 7580,
      "Ġtools": 7581,
      "oris": 7582,
      "Ġmand": 7583,
      "Ġmath": 7584,
      "Ġpal": 7585,
      "Ġpleased": 7586,
      "arp": 7587,
      "arraf": 7588,
      "Ġlit": 7589,
      "Ġgym": 7590,
      "Ġbee": 7591,
      "Ġbell": 7592,
      "ĠICE": 7593,
      "usal": 7594,
      "Ġhammer": 7595,
      "Ġelement": 7596,
      "Ġrely": 7597,
      "Ġreun": 7598,
      "Ġweigh": 7599,
      "Ġwaste": 7600,
      "Ġsteel": 7601,
      "amel": 7602,
      "ĠCont": 7603,
      "Ġanx": 7604,
      "Ġanonym": 7605,
      "Ġramp": 7606,
      "Ġrib": 7607,
      "Ġrange": 7608,
      "Ġraces": 7609,
      "Ġshr": 7610,
      "Ġshif": 7611,
      "Ġshop": 7612,
      "this": 7613,
      "ĠMiller": 7614,
      "resents": 7615,
      "ĠBaker": 7616,
      "ĠPut": 7617,
      "Ġorph": 7618,
      "ĠRel": 7619,
      "ĠHave": 7620,
      "ĠHelmsley": 7621,
      "ĠDAT": 7622,
      "ĠDaily": 7623,
      "ulating": 7624,
      "ĠNelson": 7625,
      "okie": 7626,
      "Ġvan": 7627,
      "ĠTALK": 7628,
      "ĠGut": 7629,
      "ĠKent": 7630,
      "ĠKevin": 7631,
      "aret": 7632,
      "ĠWood": 7633,
      "Ġplastic": 7634,
      "ĠLank": 7635,
      "ocol": 7636,
      "ĠOk": 7637,
      "Ġoffering": 7638,
      "Ġtwice": 7639,
      "Ġunivers": 7640,
      "Ġuniver": 7641,
      "Ġunbelievable": 7642,
      "ĠED": 7643,
      "Ġmakeup": 7644,
      "Ġcontest": 7645,
      "Ġcompar": 7646,
      "onda": 7647,
      "viation": 7648,
      "Ġinterrupt": 7649,
      "Ġgrie": 7650,
      "Ġgranted": 7651,
      "Ġshoulder": 7652,
      "Ġcable": 7653,
      "Ġcausing": 7654,
      "ĠVer": 7655,
      "ĠVoice": 7656,
      "ogether": 7657,
      "Ġbetray": 7658,
      "ĠReporter": 7659,
      "onsin": 7660,
      "Ġblog": 7661,
      "Ġquestioned": 7662,
      "issipp": 7663,
      "Ġconsens": 7664,
      "Ġinspired": 7665,
      "Lets": 7666,
      "Ġbread": 7667,
      "Ġeconomics": 7668,
      "Ġlegally": 7669,
      "Ġelector": 7670,
      "Ġfounder": 7671,
      "Ġinvestigated": 7672,
      "Ġoppose": 7673,
      "ĠBrad": 7674,
      "Ġbadly": 7675,
      "Ġelsewhere": 7676,
      "Ġinterviewing": 7677,
      "Ġspeaks": 7678,
      "Ġdepart": 7679,
      "Ġraises": 7680,
      "Ġexplained": 7681,
      "ribly": 7682,
      "Ġattacking": 7683,
      "Ġveget": 7684,
      "Ġincluded": 7685,
      "Ġlistened": 7686,
      "Ġdifficulty": 7687,
      "Ġcurious": 7688,
      "Ġsweep": 7689,
      "Ġhearts": 7690,
      "Ġsky": 7691,
      "etera": 7692,
      "Ġoperating": 7693,
      "Ġspeaker": 7694,
      "Ġmarketplace": 7695,
      "Ġreturning": 7696,
      "Ġburn": 7697,
      "Ġparking": 7698,
      "Ġbeauty": 7699,
      "Ġapproval": 7700,
      "Ġjudicial": 7701,
      "Ġ2011": 7702,
      "onnell": 7703,
      "Ġcease": 7704,
      "ĠIranians": 7705,
      "Ġruling": 7706,
      "Ġlawsuits": 7707,
      "Ġdriven": 7708,
      "isconsin": 7709,
      "Ġcouncil": 7710,
      "Ġbattlefield": 7711,
      "ĠCharl": 7712,
      "Ġcommunicate": 7713,
      "Ġcameras": 7714,
      "Ġrapid": 7715,
      "Mayor": 7716,
      "Ġracing": 7717,
      "Ġcharacters": 7718,
      "Ġharm": 7719,
      "Ġharsh": 7720,
      "Ġdamaging": 7721,
      "Ġnegotiate": 7722,
      "Ġeditorial": 7723,
      "TION": 7724,
      "Ġwalks": 7725,
      "ĠSyrian": 7726,
      "Ġperfectly": 7727,
      "Ġdropping": 7728,
      "Ġconducted": 7729,
      "ĠKorean": 7730,
      "Ġadvisers": 7731,
      "aii": 7732,
      "Ġmoderate": 7733,
      "Ġinjuries": 7734,
      "Ġcooperation": 7735,
      "ĠJudd": 7736,
      "Ġtweeting": 7737,
      "Ġtweeted": 7738,
      "Ġmental": 7739,
      "Ġsuspicious": 7740,
      "burgh": 7741,
      "Ġencouraged": 7742,
      "News": 7743,
      "Ġforgotten": 7744,
      "ĠGreenville": 7745,
      "Ġroughly": 7746,
      "Ġsurrounded": 7747,
      "Ġsurrounding": 7748,
      "Ġeliminate": 7749,
      "Ġsavings": 7750,
      "orgeous": 7751,
      "Ġanimals": 7752,
      "Ġstrategist": 7753,
      "MICHEL": 7754,
      "Ġcontrast": 7755,
      "Ġresignation": 7756,
      "Ġpursue": 7757,
      "ĠFederal": 7758,
      "Ġattractive": 7759,
      "Ġjurors": 7760,
      "ĠAustin": 7761,
      "ĠNetanyahu": 7762,
      "ĠTriangle": 7763,
      "iveness": 7764,
      "Ġgallon": 7765,
      "Ġslightly": 7766,
      "ĠBrooks": 7767,
      "Ġteleph": 7768,
      "Ġinstrument": 7769,
      "Ġestimated": 7770,
      "Ġharassment": 7771,
      "ĠJennings": 7772,
      "Ġsymbol": 7773,
      "Ġtactics": 7774,
      "Ġterritory": 7775,
      "Ġcondemn": 7776,
      "Ġpattern": 7777,
      "Ġsatisfied": 7778,
      "Ġerupt": 7779,
      "Ġnightmare": 7780,
      "Ġdynam": 7781,
      "Ġdestruction": 7782,
      "ĠMusharraf": 7783,
      "Ġthorough": 7784,
      "Ġuniverse": 7785,
      "issippi": 7786,
      "AW": 7787,
      "ABC": 7788,
      "Col": 7789,
      "Carl": 7790,
      "Hill": 7791,
      "Jud": 7792,
      "Mark": 7793,
      "Ok": 7794,
      "PEC": 7795,
      "SE": 7796,
      "Say": 7797,
      "Six": 7798,
      "TOP": 7799,
      "ba": 7800,
      "bie": 7801,
      "ders": 7802,
      "fl": 7803,
      "fare": 7804,
      "gate": 7805,
      "irop": 7806,
      "mind": 7807,
      "rin": 7808,
      "rue": 7809,
      "ship": 7810,
      "ua": 7811,
      "uine": 7812,
      "xy": 7813,
      "zing": 7814,
      "zen": 7815,
      "Ġtips": 7816,
      "Ġaim": 7817,
      "Ġaward": 7818,
      "Ġauth": 7819,
      "Ġwra": 7820,
      "Ġwoke": 7821,
      "onom": 7822,
      "Ġhill": 7823,
      "Ġhitting": 7824,
      "isd": 7825,
      "Ġbump": 7826,
      "Ġcetera": 7827,
      "Ġmail": 7828,
      "Ġmothers": 7829,
      "Ġpump": 7830,
      "Ġpages": 7831,
      "Ġpicking": 7832,
      "Ġfate": 7833,
      "esome": 7834,
      "Ġdu": 7835,
      "Ġduck": 7836,
      "Ġdressed": 7837,
      "aro": 7838,
      "Ġyellow": 7839,
      "Ġlen": 7840,
      "Ġlone": 7841,
      "Ġgiant": 7842,
      "Ġyouth": 7843,
      "ĠIve": 7844,
      "lem": 7845,
      "otom": 7846,
      "ushner": 7847,
      "Ġeast": 7848,
      "Ġdogs": 7849,
      "acr": 7850,
      "Ġgod": 7851,
      "ammer": 7852,
      "stal": 7853,
      "keep": 7854,
      "ĠCons": 7855,
      "ĠCork": 7856,
      "ĠSimon": 7857,
      "Ġru": 7858,
      "Ġshake": 7859,
      "Ġju": 7860,
      "thouse": 7861,
      "ĠAny": 7862,
      "ĠMore": 7863,
      "ĠMost": 7864,
      "ĠMasters": 7865,
      "esting": 7866,
      "Ġlibr": 7867,
      "Ġcong": 7868,
      "ĠBuck": 7869,
      "ĠPel": 7870,
      "ĠRod": 7871,
      "ĠRiver": 7872,
      "ĠHi": 7873,
      "ĠHy": 7874,
      "ĠHer": 7875,
      "ĠHay": 7876,
      "ĠHall": 7877,
      "ĠHank": 7878,
      "ĠHazel": 7879,
      "ĠHospital": 7880,
      "ĠDown": 7881,
      "ĠDave": 7882,
      "ĠDean": 7883,
      "essica": 7884,
      "ĠNeal": 7885,
      "eaking": 7886,
      "Ġven": 7887,
      "ĠTam": 7888,
      "ĠTonight": 7889,
      "unior": 7890,
      "ĠGadh": 7891,
      "ĠKushner": 7892,
      "Ġshell": 7893,
      "ĠFire": 7894,
      "Ġseeking": 7895,
      "aping": 7896,
      "Ġspill": 7897,
      "Ġspons": 7898,
      "ellect": 7899,
      "ĠLittle": 7900,
      "ĠLuis": 7901,
      "ocument": 7902,
      "Ġbacked": 7903,
      "Ġquit": 7904,
      "Theyre": 7905,
      "aggie": 7906,
      "Ġintent": 7907,
      "Ġintend": 7908,
      "Ġintellect": 7909,
      "Ġovert": 7910,
      "Ġunw": 7911,
      "Ġuncon": 7912,
      "Ġunpre": 7913,
      "Ġpartners": 7914,
      "ĠEvery": 7915,
      "ĠEgy": 7916,
      "ĠEliot": 7917,
      "ĠStorm": 7918,
      "ĠNewt": 7919,
      "Ġcontent": 7920,
      "Ġenh": 7921,
      "Ġgrant": 7922,
      "Ġgrade": 7923,
      "ickering": 7924,
      "neath": 7925,
      "Ġunderc": 7926,
      "Ġunderneath": 7927,
      "Ġcrush": 7928,
      "ĠVan": 7929,
      "ĠVeter": 7930,
      "Ġboat": 7931,
      "athetic": 7932,
      "Ġincomp": 7933,
      "aves": 7934,
      "Ġwarned": 7935,
      "Ġmoves": 7936,
      "rence": 7937,
      "Ġconsist": 7938,
      "Ġ33": 7939,
      "Ġindict": 7940,
      "Ġindicate": 7941,
      "Ġ1991": 7942,
      "Ġrepresents": 7943,
      "Ġearned": 7944,
      "Ġfinds": 7945,
      "Ġpercentage": 7946,
      "Ġschol": 7947,
      "ucky": 7948,
      "Ġdesert": 7949,
      "Ġcorrupt": 7950,
      "Ġhardly": 7951,
      "Ġgenuine": 7952,
      "Ġpayments": 7953,
      "ashed": 7954,
      "Ġpriests": 7955,
      "ologists": 7956,
      "Ġleak": 7957,
      "ĠItalian": 7958,
      "Ġfunction": 7959,
      "Ġreferring": 7960,
      "ounce": 7961,
      "ounced": 7962,
      "ĠThese": 7963,
      "Ġstrongest": 7964,
      "ĠArmstrong": 7965,
      "NNED": 7966,
      "ĠMichel": 7967,
      "class": 7968,
      "Ġprofits": 7969,
      "Ġallegation": 7970,
      "Ġ2001": 7971,
      "Ġteams": 7972,
      "Ġrequires": 7973,
      "Ġartist": 7974,
      "Ġartists": 7975,
      "Ġtechnical": 7976,
      "ĠDoctor": 7977,
      "Ġchallenged": 7978,
      "ĠHarvard": 7979,
      "Ġincreased": 7980,
      "Ġexciting": 7981,
      "Ġdeveloping": 7982,
      "Ġrisks": 7983,
      "Ġvideos": 7984,
      "ĠMississippi": 7985,
      "Ġfailing": 7986,
      "Ġ1990": 7987,
      "Ġsearching": 7988,
      "Without": 7989,
      "Ġstatistics": 7990,
      "Ġcircus": 7991,
      "Ġbias": 7992,
      "Ġcomplain": 7993,
      "Ġcivilians": 7994,
      "Ġsalary": 7995,
      "Ġbroader": 7996,
      "Ġeducated": 7997,
      "Ġregardless": 7998,
      "Ġdisappeared": 7999
    },
    "merges": [
      "Ġ t",
      "Ġt h",
      "Ġ a",
      "č Ċ",
      "Ġ čĊ",
      "i n",
      "e r",
      "Ġ w",
      "Ġth e",
      "o u",
      "Ġ s",
      "a t",
      "r e",
      "o n",
      "Ġ h",
      "n d",
      "i s",
      "i t",
      "in g",
      "Ġ b",
      "e n",
      "Ġ c",
      "Ġ o",
      "Ġt o",
      "o r",
      "Ġ m",
      "Ġ p",
      "a n",
      "Ġ f",
      "e s",
      "l l",
      "Ġ d",
      "e d",
      "Ġ n",
      "Ġo f",
      "Ġ in",
      "a r",
      "Ġ y",
      "a s",
      "Ġ l",
      "Ġth at",
      "Ġa nd",
      "Ġ g",
      "o m",
      "Ġy ou",
      "i c",
      "v e",
      "o w",
      "Ġb e",
      "a l",
      "Ġw h",
      "Ġ I",
      "' s",
      "l e",
      "o t",
      "u s",
      "i d",
      "a y",
      "Ġ is",
      "Ġ it",
      "i on",
      "en t",
      "e t",
      "Ġh a",
      "er e",
      "Ġ e",
      "Ġ on",
      "T h",
      "Ġ re",
      "v er",
      "u t",
      "i g",
      "Ġw e",
      "l d",
      "Ġd o",
      "i m",
      "ou t",
      "a c",
      "Ġf or",
      "Ġh e",
      "s e",
      "Ġw as",
      "Ġ k",
      "Ġth is",
      "Ġ -",
      "l y",
      "Ġg o",
      "Ġs t",
      "a m",
      "r o",
      "s t",
      "A nd",
      "h t",
      "Ġha ve",
      "a ll",
      "k e",
      "it h",
      "Ġ C",
      "' t",
      "i ll",
      "i f",
      "Ġthe y",
      "i r",
      "Ġw ith",
      "Ġa n",
      "Ġ- -",
      "o p",
      "e c",
      "a d",
      "Ġ S",
      "ig ht",
      "Ġ r",
      "Ġa re",
      "Ġs h",
      "Ġa b",
      "Ġ j",
      "t er",
      "Ġn ot",
      "ou ld",
      "t h",
      "Ġ u",
      "Ġk n",
      "om e",
      "Th e",
      "Ġ A",
      "Ġa s",
      "Ġ M",
      "at ion",
      "o l",
      "u r",
      "W e",
      "c h",
      "Ġkn ow",
      "re s",
      "ou r",
      "Ġm e",
      "o d",
      "Ġwh at",
      "Ġa t",
      "us t",
      "es t",
      "Ġab out",
      "c e",
      "in k",
      "an t",
      "e e",
      ". .",
      "Ġl i",
      "' re",
      "Ġth ere",
      "all y",
      "ver y",
      "Ġth ink",
      "e w",
      "er s",
      "at e",
      "p p",
      "g e",
      "Ġf r",
      "o re",
      "i l",
      "Ġc on",
      "Ġp e",
      "op le",
      "Ġ B",
      "Ġs ay",
      "Ġa ll",
      "Ġgo ing",
      "Ġpe ople",
      "Ġ P",
      "c t",
      "Ġt r",
      "a in",
      "Ġwh o",
      "Ġs o",
      "is t",
      "Ġo r",
      "Ġj ust",
      "m ent",
      "i e",
      "e ar",
      "Ġ R",
      "Ġc h",
      "Ġ H",
      "Ġ D",
      "or t",
      "W h",
      "Ġp ro",
      "Ġ out",
      "Ġ ĠčĊ",
      "Ġc om",
      "a nd",
      "u l",
      "es s",
      "Ġl o",
      "Ġ N",
      "Ġli ke",
      "us e",
      "Ġd e",
      "Ġfr om",
      "I t",
      "ar t",
      "ac k",
      "Ġ J",
      "o k",
      "Ġb ut",
      "Ġg et",
      "Ġ \"",
      "Ġw or",
      "Ġs ome",
      "e a",
      "Ġs u",
      "Ġ v",
      "Ġh as",
      "Ġw ould",
      "Ġs a",
      "i ve",
      "h er",
      "B ut",
      "ou g",
      "Ġa l",
      "on e",
      "n t",
      "Ġe x",
      "Ġw ere",
      "Ġha d",
      "Y ou",
      "Ġon e",
      "Ġ T",
      "q u",
      "Ġu p",
      "b le",
      "o s",
      "u n",
      "Ġ G",
      "a ke",
      "Ġn e",
      "id ent",
      "Ġc an",
      "u m",
      "Ġ :",
      "Ġ 1",
      "Ġd id",
      "Ġh is",
      "ic e",
      "a use",
      "r i",
      "ar d",
      "Ġ if",
      "Ġbe c",
      "on g",
      "Ġr ight",
      "Ġw ant",
      "it y",
      "Ġbe en",
      "Ġ K",
      "im e",
      "as t",
      "Ġ very",
      "Ġm y",
      "Ġw ill",
      "e m",
      "k ing",
      "Ġsh e",
      "Ġwh en",
      "Ġ F",
      "in d",
      "m er",
      "Ġthe m",
      "Ġb y",
      "i es",
      "h ing",
      "Ġ us",
      "Ġa g",
      "Ġh er",
      "Ġs ee",
      ".. .",
      "a p",
      "ec t",
      "r y",
      "Ġyou r",
      "Ġs p",
      "Ġsa id",
      "Ġn ow",
      "Ġth ing",
      "S o",
      "e l",
      "' m",
      "a re",
      "Ġbec ause",
      "res ident",
      "Ġm ore",
      "ou nd",
      "u d",
      "Ġan y",
      "Ġ W",
      "e ll",
      "Ġp l",
      "Ġy ear",
      "an s",
      "We ll",
      "Ġ L",
      "Ġ our",
      "ic h",
      "Ġh ere",
      "r a",
      "ou s",
      "Th at",
      "in e",
      "Ġn o",
      "o c",
      "o st",
      "ac t",
      "Ġthe ir",
      "' ve",
      "H e",
      "Ġl e",
      "Ġt ime",
      "o se",
      "oug h",
      "Ġb ack",
      "Ġ O",
      "e p",
      "Ġ qu",
      "The y",
      "b l",
      "Ġh im",
      "am e",
      "i v",
      "i al",
      "an k",
      "0 0",
      "Ġt al",
      "Ġc ou",
      "Ġg ot",
      "it t",
      "a g",
      "u re",
      "Ġ U",
      "in t",
      "ar y",
      "Ġ im",
      "res s",
      "h e",
      "Ġthe se",
      "Ġe very",
      "b er",
      "Ġa d",
      "Ġe v",
      "Ġlo ok",
      "Ġre ally",
      "en ce",
      "Ġm an",
      "Ġa r",
      "th er",
      "re at",
      "id e",
      "f f",
      "Ġh ow",
      "d ay",
      "Ġin t",
      "Ġs e",
      "i a",
      "Ġo ver",
      "Ġof f",
      "u ch",
      "Ġ )",
      "Ġw ay",
      "i p",
      "Ġl ot",
      "it e",
      "Ġp r",
      "a k",
      "Ġme an",
      "re e",
      "Ġc ould",
      "a ge",
      "ow n",
      "om et",
      "i re",
      "n ing",
      "mer ic",
      "u e",
      "Ġ Y",
      "Ġt w",
      "Ġp ol",
      "Ġ 2",
      "ea h",
      "Wh at",
      "ir st",
      "Ġo ther",
      "u bl",
      "od y",
      "ion s",
      "Ġm uch",
      "a b",
      "Ġthe n",
      "Ġyear s",
      "o b",
      "Ġs omet",
      "Ġ (",
      "Ġu n",
      "Ġc o",
      "Ġwh ich",
      "Ġwh ere",
      "Ġc l",
      "ubl ic",
      "ĠA meric",
      "Ġa ct",
      "Ġp art",
      "Ġn ew",
      "i z",
      "Ġha pp",
      "as s",
      "as e",
      "Th is",
      "f ter",
      "Ġ E",
      "p ort",
      "n ed",
      "Ġp o",
      "ac e",
      "w ay",
      "Ġd ay",
      "ĠS t",
      "Ġgo od",
      "Ġg u",
      "Ġf irst",
      "u g",
      "Ġdo es",
      "Ġm ake",
      "' ll",
      "ĠN ew",
      "Ġp resident",
      "ic al",
      "Ġcon t",
      "Ġwor k",
      "Ġcou nt",
      "Ġ en",
      "Ġcom p",
      "on d",
      "v i",
      "i ld",
      "Ġb r",
      "ation s",
      "Ġex p",
      "Ġag ain",
      "Ġthing s",
      "s o",
      "Ġa c",
      "Ġc all",
      "Ġa fter",
      "Ġp er",
      "Ġth an",
      "e nd",
      "Ġre s",
      "Ġtw o",
      "Ġd is",
      "Ġsomet hing",
      "Ġint o",
      "b ody",
      "Ġth ose",
      "Ġin ter",
      "Ġg r",
      "Ġhapp en",
      "o od",
      "ĠC h",
      "ic k",
      "l ie",
      "v ing",
      "at ed",
      "if e",
      "Ġc ome",
      "Th ere",
      "n e",
      "ac h",
      "Ġsh ould",
      "nd er",
      "ad e",
      "u c",
      "ot her",
      "Ġm ay",
      "Ġl et",
      "am p",
      "an ce",
      "A N",
      "Ġc our",
      "Ġtal k",
      "or y",
      "at es",
      "Ġal so",
      "or m",
      "ig n",
      "Ġev en",
      "Ġp re",
      "a w",
      "Ġtr y",
      "Ġw r",
      "ic t",
      "Ġk ind",
      "Ġt ake",
      "if f",
      "Y es",
      "Ġc a",
      "Ġto day",
      "ver n",
      "se l",
      "i ed",
      "Ġu nder",
      "u ally",
      "Ġwe e",
      "Ġne ed",
      "or d",
      "h n",
      "Ġw om",
      "ou se",
      "Ġqu est",
      "er t",
      "oug ht",
      "Ġa pp",
      "p t",
      "Ġd own",
      "m s",
      "Ġre c",
      "re d",
      "Ġcount ry",
      "M r",
      "Ġc r",
      "Ġbe ing",
      "Ġon ly",
      "Ġwe ll",
      "Ġ V",
      "Ġsh ow",
      "itt le",
      "v ed",
      "Ġ The",
      "Ġbe lie",
      "a ble",
      "i an",
      "Y eah",
      "S he",
      "Ġa m",
      "f ore",
      "t ing",
      "Ġb o",
      "ee l",
      "th ing",
      "Ġt ell",
      "or s",
      "Ġsay s",
      "Ġl ittle",
      "Ġ ro",
      "Ġcom m",
      "ar k",
      "Ġin v",
      "Ġman y",
      "is h",
      "Ġp ut",
      "Ġd iff",
      "at h",
      "Ġs c",
      "ers on",
      "o g",
      "et her",
      "x t",
      "Ġd ec",
      "Ġin c",
      "a v",
      "Ġat t",
      "Ġl ast",
      "Ġwee k",
      "ul t",
      "Ġgo vern",
      "Ġg reat",
      "Ġw ar",
      "Ġth r",
      "Ġb ig",
      "Ġ1 0",
      "Ġm o",
      "Ġch ild",
      "Ġpo int",
      "r at",
      "w n",
      "Ġst ate",
      "Ġbe t",
      "i ly",
      "Ġst art",
      "o ice",
      "Ġf act",
      "re n",
      "an g",
      "y s",
      "ĠR ep",
      "Ġf am",
      "Ġm ost",
      "a il",
      "Ġf eel",
      "on s",
      "it ed",
      "Ġsay ing",
      "o ver",
      "ĠU n",
      "m an",
      "Ġsu pp",
      "Ġbe fore",
      "im es",
      "Ġhe l",
      "Ġst ill",
      "um p",
      "Th ank",
      "I n",
      "t y",
      "a king",
      "Ġb l",
      "Ġ Wh",
      "Ġwh y",
      "Ġs ec",
      "Ġs er",
      "Ġas k",
      "Ġm ade",
      "Ġj ob",
      "ĠP resident",
      "I N",
      "N ow",
      "Ġl ong",
      "en s",
      "Ġdo ing",
      "Ġne ver",
      "N o",
      "ĠRep ublic",
      "ĠJ o",
      "Ġre m",
      "Ġhel p",
      "v es",
      "or k",
      "A ll",
      "Ġquest ion",
      "Ġl ife",
      "Ġbelie ve",
      "it ion",
      "Ġp erson",
      "Ġre al",
      "Ġo p",
      "Ġac c",
      "is s",
      "Ġt er",
      "Ġis s",
      "ee p",
      "Ġpol it",
      "Ġact ually",
      "ut e",
      "Ġl aw",
      "one y",
      "Ġgovern ment",
      "i le",
      "ĠM r",
      "Ġthr ough",
      "le ct",
      "Ġpro ble",
      "I f",
      "p l",
      "t on",
      "Ġde f",
      "o ld",
      "Ġt e",
      "en se",
      "at er",
      "ot h",
      "Ġst r",
      "Ġth ree",
      "er al",
      "ver s",
      "Ġit s",
      "oc rat",
      "ĠAmeric an",
      "Ġc are",
      "b e",
      "Ġne xt",
      "Ġ ;",
      "Ġp os",
      "ĠH ouse",
      "Ġv ot",
      "i ble",
      "Ġto o",
      "u es",
      "Ġp h",
      "Ġm or",
      "sel f",
      "i b",
      "Ġe nd",
      "Ġdiff er",
      "O N",
      "f orm",
      "Ġcon s",
      "Ġm oney",
      "Ġpl ay",
      "Ġtal king",
      "em ocrat",
      "i ous",
      "s s",
      "ĠT r",
      "g r",
      "Ġo wn",
      "f ul",
      "Ġm on",
      "at ch",
      "u p",
      "Ġ 3",
      "is e",
      "Ġin d",
      "Ġhe ar",
      "c on",
      "Ġ And",
      "Ġar ound",
      "a ir",
      "ĠD emocrat",
      "r ation",
      "Ġ1 9",
      "Ġc ase",
      "u ll",
      "Ġd one",
      "Ġre port",
      "Ġt ur",
      "' d",
      "Ġwom en",
      "way s",
      "us h",
      "ad y",
      "0 9",
      "at her",
      "Ġtry ing",
      "D o",
      "am a",
      "Ġs ur",
      "w ard",
      "Ġwor ld",
      "Ġre l",
      "ĠC l",
      "Ġcour se",
      "E R",
      "Ġ $",
      "u nd",
      "Ġan other",
      "at ing",
      "f t",
      "Ġth ought",
      "an c",
      "Ġin s",
      "ve l",
      "u al",
      "ic ally",
      "Ġb us",
      "m b",
      "Ġw ent",
      "ig h",
      "le ar",
      "ent s",
      "Ġmor ning",
      "u ct",
      "ert ain",
      ", '",
      "i et",
      "Ġagain st",
      "Ġal ways",
      "Ġf in",
      "ill ion",
      "ment s",
      "Ġs ame",
      "Ġr un",
      "Ġ 09",
      "Ġh ome",
      "Ġle ad",
      "ĠJo hn",
      "an ge",
      "Ġchild ren",
      "Ġn ight",
      "Ġst ory",
      "H ow",
      "a x",
      "c er",
      "c ent",
      "Ġim p",
      "ĠY ork",
      "O h",
      "R E",
      "Ġc ame",
      "Ġm in",
      "ation al",
      "Ġc amp",
      "Ġre p",
      "Ġm om",
      "Ġb u",
      "ĠO b",
      "h ip",
      "ic s",
      "Ġe ar",
      "L et",
      "n g",
      "Ġm ed",
      "Ġg ive",
      "IN G",
      "ĠTr ump",
      "e g",
      "Ġf ind",
      "as hing",
      "con om",
      "l i",
      "ow er",
      "Ġim port",
      "Ġb re",
      "a it",
      "w e",
      "Ġs ort",
      "Ġp ublic",
      "Ġk eep",
      "o ll",
      "Ġcom ing",
      "Ġde al",
      "Ġbe g",
      "Ġcon f",
      "m in",
      "Ġinv est",
      "Ġf l",
      "ĠUn ited",
      "ĠS en",
      "Ġv i",
      "re t",
      "o ol",
      "is ion",
      "a ug",
      "Ġe conom",
      "ne y",
      "Ġfam ily",
      "us s",
      "ong ress",
      "Ġmon th",
      "ut ion",
      "Ġpl an",
      "op e",
      "a z",
      "Ġk id",
      "ter s",
      "o y",
      "p ect",
      "en c",
      "Ġc ar",
      "ab ly",
      "Ġper cent",
      "Ġb oth",
      "Ġd r",
      "Ġs m",
      "Ġb as",
      "Ġn um",
      "Ġe ver",
      "Ġst and",
      "oc k",
      "Ġs ch",
      "Ġto ld",
      "Ġle g",
      "Ġimport ant",
      "ashing ton",
      "at or",
      "Ġha nd",
      "Ġget ting",
      "ĠWh ite",
      "Ġinter est",
      "uc k",
      "Ġag o",
      "Ġany thing",
      "vi ew",
      "v en",
      "Ġd es",
      "Ġy es",
      "al th",
      "Ġnew s",
      "in ess",
      "ĠW ashington",
      "on t",
      "Ġc or",
      "i x",
      "em ber",
      "Ġcont in",
      "R ight",
      "are nt",
      "c ess",
      "Ġe l",
      "il it",
      "ie nd",
      "Ġh ard",
      "Ġc ertain",
      "Ġproble m",
      "Ġdiffer ent",
      "Ġunder st",
      "Ġs y",
      "Ġo b",
      "Ġsupp ort",
      "Wh en",
      "Ġwant ed",
      "Ġas s",
      "ak es",
      "Ġ2 0",
      "ĠOb ama",
      "Ġth ank",
      "00 0",
      "Ġe lect",
      "Ġk ill",
      "Ġcall ed",
      "l es",
      "Ġm ight",
      "Ġg en",
      "ĠC ongress",
      "Ġsu re",
      "Ġs it",
      "at ive",
      "Ġf ar",
      "Ġp ay",
      "int on",
      "Ġa way",
      "Ġs et",
      "Ġf ound",
      "es e",
      "Ġlo ve",
      "t s",
      "Ġ We",
      "ing s",
      "d er",
      "e ver",
      "ĠSt ates",
      "o in",
      "ut h",
      "ĠNew s",
      "Ġhappen ed",
      "Ġt ax",
      "ent ion",
      "Ġwh ether",
      "ur ing",
      "Ġw atch",
      "o ok",
      "in ce",
      "il ity",
      "ar g",
      "it s",
      "A T",
      "as on",
      "Ġha ving",
      "Ġwor d",
      "n er",
      "s on",
      "on ight",
      "ist s",
      "Ġbo ok",
      "Ġinvest ig",
      "Ġunderst and",
      "Ġ .",
      "Ġhe ad",
      "Ġre g",
      "Ġab le",
      "a ve",
      "ĠCl inton",
      "Ġiss ue",
      "ĠI ra",
      "Ġpro b",
      "Ġ 5",
      "Ġfr iend",
      "t e",
      "Ġh igh",
      "I s",
      "Ġc lear",
      "os ed",
      "Ġoff ic",
      "Ġpolit ical",
      "v oice",
      "Ġh our",
      "Ġp ass",
      "Ġco ll",
      "Ġday s",
      "al s",
      "Ġdis c",
      "Ġo pp",
      "w h",
      "Ġhe ard",
      "Ġwho le",
      "ul ar",
      "N ING",
      "p le",
      "Ġ 4",
      "Ġl ist",
      "Ġre ad",
      "ĠAmeric a",
      "Ġbet ter",
      "ĠIra q",
      "ĠB r",
      "id ence",
      "ro ss",
      "Ġbus iness",
      "Ġd et",
      "Ġyou ng",
      "Ġcamp a",
      "Ġo ld",
      "Ġcour t",
      "n ess",
      "as h",
      "Ġb it",
      "er v",
      "ĠM ar",
      "Ġf our",
      "Ġst op",
      "Ġsch ool",
      "r is",
      "ou p",
      "m ed",
      "Ġle ft",
      "ĠRepublic an",
      "ou nt",
      "min ist",
      "k s",
      "i o",
      "Ġkid s",
      "Ġth ough",
      "if ied",
      "Ġad d",
      "Ġmay be",
      "Ġ You",
      "en ned",
      "Ġp ri",
      "Wh y",
      "Ġpl ace",
      "Ġprob ably",
      "Ġg iv",
      "Ġus ed",
      "Ġevery body",
      "Ġevery thing",
      "Ġre t",
      "if ic",
      "RE A",
      "at ter",
      "om m",
      "Ġst ud",
      "ĠS o",
      "Ġsec ond",
      "s ol",
      "g ether",
      "Ġto gether",
      "Ġwom an",
      "Ġm en",
      "ie f",
      "Ġwor king",
      "it ies",
      "Ġm a",
      "ire ct",
      "Ġnum ber",
      "Ġcampa ign",
      "Ġb ad",
      "ud ge",
      "Ġpol ic",
      "re m",
      "Ġe ff",
      "we en",
      "Ġ ,",
      "Ġb est",
      "Ġj oin",
      "Ġad minist",
      "sol ute",
      "Ġse en",
      "Ġel se",
      "Ġf ight",
      "Ġhe alth",
      "ol og",
      "un ity",
      "Ġsp ec",
      "Ġen ough",
      "Ġ ent",
      "Ġt est",
      "Ġf ew",
      "ĠM c",
      "Ġde b",
      "Ġbet ween",
      "Ġmom ent",
      "n am",
      "s h",
      "Ġs im",
      "e y",
      "Ġm aking",
      "Ġl ea",
      "vi ous",
      "Ġh ope",
      "ĠC AN",
      "Ġbre ak",
      "D REA",
      "Ġ id",
      "ĠCAN NING",
      "Ġpol ice",
      "l and",
      "o ot",
      "Ġ use",
      "Ġp arent",
      "st em",
      "Ġs ide",
      "Ġlook ing",
      "g et",
      "Ġt onight",
      "Ġm ilit",
      "Ġres p",
      "ec ause",
      "Ġag ree",
      "Ġop en",
      "n s",
      "Ġm ar",
      "ro p",
      "Ġkn ew",
      "Ġpos s",
      "iz ed",
      "i ally",
      "Ġto ok",
      "Ġbr ing",
      "Ġsy stem",
      "Ġadminist ration",
      "Ġn t",
      "Ġse x",
      "a pp",
      "Ġsu b",
      "ĠRepublic ans",
      "Ġch ange",
      "iz e",
      "Ġwr ong",
      "Ġstart ed",
      "j or",
      "u ff",
      "Ġl ater",
      "Ġcomp an",
      "Ġgr oup",
      "Ġid ea",
      "Ġm illion",
      "Ġsa w",
      "he ad",
      "c ial",
      "Ġp ress",
      "ĠI s",
      "Ġgu y",
      "enned y",
      "l ud",
      "at t",
      "Ġin st",
      "Ġe m",
      "Ġsome body",
      "Ġcont ro",
      "f r",
      "Ġp res",
      "ot e",
      "gr am",
      "A s",
      "c ed",
      "j ect",
      "Ġex t",
      "g er",
      "k ay",
      "r ist",
      "Ġf ive",
      "ate ly",
      "Ġgu ys",
      "solute ly",
      "O K",
      "g an",
      "in a",
      "ĠI t",
      "Ġw in",
      "Ġinter view",
      "n y",
      "F or",
      "Ġmo ve",
      "Ġrem ember",
      "Ġmonth s",
      "ĠC ar",
      "Ġtr ans",
      "s w",
      "re ady",
      "ĠA d",
      "A R",
      "g est",
      "Ġ ed",
      "is m",
      "Ġb ill",
      "Ġf un",
      "Ġd irect",
      "Ġpro gram",
      "Ġco ver",
      "Ġpre t",
      "p er",
      "Ġbe h",
      "Ġre st",
      "i ence",
      "et s",
      "Ġwith out",
      "a h",
      "e x",
      "Ġal ready",
      "B C",
      "E L",
      "Ġt imes",
      "m ost",
      "Ġev idence",
      "Ġch ang",
      "Ġtr ue",
      "Ġpr ot",
      "ĠDemocrat s",
      "Ġvi ew",
      "Ġmilit ary",
      "Ġs ense",
      "Ġan sw",
      "Ġsp ea",
      "r u",
      "Ġl ess",
      "Ġre f",
      "Ġbeg in",
      "Ġd uring",
      "Ġa ir",
      "Ġme et",
      "Ġcom es",
      "ire d",
      "r ow",
      "it al",
      "le y",
      "Ġsome one",
      "B ecause",
      "u res",
      "y ing",
      "or n",
      "Ġp ower",
      "Ġsu ch",
      "Ġ Well",
      "Ġm ark",
      "Ġwh ile",
      "ĠB ill",
      "act ly",
      "Ġc ut",
      "Ġu nt",
      "Ġad v",
      "ak en",
      "iet nam",
      "- -",
      "Ġw ait",
      "Ġto p",
      "Ġl ear",
      "Ġs ince",
      "ar s",
      "ir l",
      "Ġsit u",
      "Ġnot hing",
      "ĠV ietnam",
      "i ke",
      "Ġs l",
      "ot t",
      "Ġcon cer",
      "G ood",
      "Ġre ason",
      "ĠAmeric ans",
      "Ġask ed",
      "Ġrel ations",
      "Ġma jor",
      "c es",
      "l ine",
      "Ġa head",
      "ĠC on",
      "ĠA l",
      "Ġpret ty",
      "Ġm ind",
      "ou n",
      "us ed",
      "Ġde p",
      "Ġal most",
      "ĠF r",
      "d uct",
      "al d",
      "Ġli ve",
      "Ġde ath",
      "Ġv oice",
      "Ġle ast",
      "i ans",
      "Ġr a",
      "e f",
      "ce pt",
      "Ġlo c",
      "iv es",
      "is on",
      "Ġexp l",
      "Ġiss ues",
      "O ne",
      "Ġ 6",
      "Ġf ore",
      "are d",
      "ĠM ary",
      "ri b",
      "Ġatt ack",
      "Ġcertain ly",
      "er ed",
      "ri ed",
      "Ġeconom y",
      "Ġ ve",
      "Ġp ict",
      "Ġon ce",
      "out h",
      "ĠH e",
      "Ġexp ect",
      "l ed",
      "ic es",
      "ĠI n",
      "id d",
      "m m",
      "Ġh um",
      "ĠC our",
      "Ġjob s",
      "re am",
      "Ġpolic y",
      "Ġunt il",
      "Ġ Th",
      "Ġh ist",
      "Ġinc lud",
      "i er",
      "on y",
      "Ġp ast",
      "Ġe ach",
      "ĠR om",
      "Ġpart ic",
      "Ġvot e",
      "e an",
      "er ing",
      "Ġlist en",
      "Ġparent s",
      "ap e",
      "Ġmed ia",
      "o f",
      "Ġs ign",
      "ĠG e",
      "Ġoff ice",
      "Ġtalk ed",
      "Ġs ing",
      "on ald",
      "Ġm atter",
      "al f",
      "Ġh old",
      "Ġl ine",
      "Ġinv ol",
      "L E",
      "o ke",
      "Ġt aking",
      "is ter",
      "Ġm akes",
      "Ġin form",
      "al k",
      "Ġde m",
      "Ġwant s",
      "ĠK ennedy",
      "oll ow",
      "ĠCour t",
      "Ġsp end",
      "Ġb ro",
      "om in",
      "ĠB ush",
      "av id",
      "in es",
      "Ġcl ose",
      "M y",
      "Ġn ame",
      "Ġfor mer",
      "Ġst ay",
      "H ere",
      "ĠR uss",
      "Ġcou ple",
      "o v",
      "Ġt aken",
      "or ies",
      "Ġm ess",
      "ĠS h",
      "ĠK at",
      "Ġstr ong",
      "vious ly",
      "Ġsitu ation",
      "Ġ 9",
      "Ġy eah",
      "M s",
      "r an",
      "is ing",
      "ĠA r",
      "Ġch ar",
      "Ġlo st",
      "Ġsee ms",
      "ĠY eah",
      "I E",
      "Ġt reat",
      "Ġa ff",
      "Ġpro v",
      "rem e",
      "N N",
      "c ome",
      "Ġw ife",
      "as es",
      "Ġpart y",
      "i ent",
      "Ġgo es",
      "ur ity",
      "Ġm other",
      "ic ult",
      "ter n",
      "ĠM ich",
      "Ġc ap",
      "Ġim m",
      "ĠCh rist",
      "Ġf ollow",
      "Ġpro cess",
      "and id",
      "sel ves",
      "t en",
      "Ġf air",
      "ac y",
      "Ġstate ment",
      "O n",
      "p h",
      "Ġw ond",
      "Ġg irl",
      "id ed",
      "Ġcon v",
      "c l",
      "Ġd ist",
      "al e",
      "Ġsm all",
      "Thank s",
      "n al",
      "ur y",
      "aug ht",
      "s ide",
      "am b",
      "Ġgu ess",
      "Ġrec ord",
      "Ġlead ers",
      "U n",
      "i vers",
      "Ġmo v",
      "N ot",
      "Ġm ust",
      "ĠN o",
      "Ġquest ions",
      "Ġro om",
      "Ġweek s",
      "Ġfam il",
      "ĠAd am",
      "Ġfor ward",
      "Ġst uff",
      "ant s",
      "ĠR o",
      "ĠD r",
      "ous and",
      "m y",
      "Ġpro f",
      "ĠG od",
      "Ġdiff icult",
      "g ress",
      "in s",
      "Ġc ur",
      "Ġfr ont",
      "Ġcontin ue",
      "Ġy et",
      "AN DREA",
      "Ġproble ms",
      "Ġtur n",
      "und red",
      "b and",
      "Ġc andid",
      "ĠB ut",
      "Ġ What",
      "Ġa ge",
      "Ġh ouse",
      "le v",
      "us band",
      "Ġex actly",
      "Ġbec ome",
      "Ġter ms",
      "Ġtur ned",
      "ĠSen ator",
      "ĠGe or",
      "Ġinform ation",
      "ĠKat ie",
      "Ġf ed",
      "om b",
      "ith er",
      "art ment",
      "Ġsu c",
      "Ġqu ite",
      "Ġrelations hip",
      "p r",
      "Ġs ent",
      "Ġs ix",
      "st it",
      "ag ed",
      "Ġser ious",
      "t o",
      "u ment",
      "Ġs en",
      "an n",
      "Ġhim self",
      "Ġbu ild",
      "Ġfriend s",
      "wh ere",
      "O R",
      "Ġs w",
      "Ġh undred",
      "Ġg l",
      "im in",
      "Ġhe art",
      "op s",
      "l ess",
      "Ġth ousand",
      "Ġm et",
      "Ġme ans",
      "Ġall ow",
      "l ing",
      "Ġf el",
      "id es",
      "ĠS up",
      "Ġexp er",
      "Ġansw er",
      "Ġpartic ular",
      "Ġ es",
      "Ġhappen s",
      "Ġgen eral",
      "idd le",
      "Ġs ound",
      "ĠA BC",
      "Ġac ross",
      "S t",
      "b y",
      "e al",
      "Ġ 7",
      "Ġh usband",
      "Ġex amp",
      "Ġar g",
      "enc y",
      "Ġ 8",
      "Ġs ol",
      "ĠB ob",
      "ĠD avid",
      "ag es",
      "B I",
      "o int",
      "re w",
      "le ase",
      "Ġdo ll",
      "se c",
      "ĠC omm",
      "ec k",
      "Ġany body",
      "ĠSen ate",
      "g y",
      "y ear",
      "Ġs k",
      "th ers",
      "ĠO h",
      "Ġqu ick",
      "ath y",
      "Ġcons erv",
      "Ġeff ect",
      "u b",
      "or row",
      "Ġf il",
      "Ġe as",
      "Ġor gan",
      "Ġcr it",
      "Ġcomm unity",
      "Ġdec ision",
      "Ġter r",
      "Ġkill ed",
      "a im",
      "Ġh it",
      "et er",
      "Ġwork ed",
      "e ople",
      "ec h",
      "ain ed",
      "ident ified",
      "Ġcomp le",
      "A re",
      "Ġm us",
      "Ġp at",
      "Ġd iv",
      "Ġall eg",
      "Ġor der",
      "Ġsu g",
      "Ġpr om",
      "Ġop er",
      "Ġinvestig ation",
      "l come",
      "y p",
      "Ġw o",
      "Ġl im",
      "Ġget s",
      "ra el",
      "Ġdisc uss",
      "c c",
      "Ġm iss",
      "Ġp ick",
      "Ġf ire",
      "Ġn ear",
      "Ġn ational",
      "ĠA n",
      "Ġinterest ing",
      "Ġhour s",
      "Ġbeh ind",
      "A t",
      "Ġs us",
      "or ney",
      "ut es",
      "ir d",
      "Ġwr it",
      "Ġph one",
      "am es",
      "Ġknow s",
      "os p",
      "Ġ2 00",
      "Ġgr ound",
      "Ġexamp le",
      "i ec",
      "Ġp op",
      "Ġsh ort",
      "ĠH ill",
      "Ġpro p",
      "ri es",
      "pl oy",
      "Ġh alf",
      "ĠS ec",
      "ĠD onald",
      "ĠF l",
      "ial s",
      "uth or",
      "ĠSo vi",
      "Ġfel t",
      "e b",
      "Ġin f",
      "Ġst ates",
      "ap s",
      "Ġevery one",
      "Ġrun ning",
      "Ġimm ig",
      "J ust",
      "Ġ ill",
      "ret ary",
      "Ġresp ons",
      "Ġprot ect",
      "Ġth reat",
      "Ġf e",
      "ter day",
      "Ġspea k",
      "Ġmark et",
      "Ġhist ory",
      "L ook",
      "er y",
      "re et",
      "as ed",
      "Ġdo ct",
      "Ġme m",
      "Ġli ves",
      "Ġal ong",
      "Ġcl ass",
      "Ġdef ense",
      "aug h",
      "Ġword s",
      "Ġret ur",
      "D id",
      "ion al",
      "ĠO K",
      "ure d",
      "Ġte am",
      "ib ility",
      "ĠDemocrat ic",
      "li er",
      "Ġbas ically",
      "Ġb omb",
      "Ġwhat ever",
      "Ġv is",
      "Ġam ong",
      "Ġfed eral",
      "a ut",
      "er ry",
      "Ġh ot",
      "ar ch",
      "Ġre qu",
      "se y",
      "Ġan n",
      "ec hn",
      "Ġr ad",
      "Ġab solutely",
      "Ġser v",
      "Ġvi ol",
      "Ġfamil ies",
      "y l",
      "at ors",
      "Ġb ur",
      "Ġc ity",
      "Ġf ather",
      "et h",
      "all en",
      "Ġear ly",
      "Ġpri v",
      "a id",
      "a ff",
      "e ge",
      "re en",
      "Ġo thers",
      "Ġob viously",
      "Ġinvol ved",
      "Ġm ur",
      "Ġp iec",
      "Ġf ace",
      "Ġd ou",
      "Ġ1 5",
      "Ġcl aim",
      "Ġperson al",
      "Ġcontro l",
      "Ġhum an",
      "Ġt ough",
      "Ġf ig",
      "Ġg ave",
      "Ġst ep",
      "Ġv ict",
      "Ġ3 0",
      "Ġwatch ing",
      "ĠMc C",
      "Ġdeb ate",
      "Ġposs ible",
      "ĠIs rael",
      "re ed",
      "Ġh on",
      "Ġc ost",
      "Ġe y",
      "our nal",
      "Ġrec ent",
      "Ġto m",
      "Ġd ied",
      "Ġg one",
      "ent y",
      "Ġe mb",
      "ĠK h",
      "ra b",
      "Ġar t",
      "C H",
      "E very",
      "S ON",
      "i or",
      "Ġc ent",
      "or th",
      "om ing",
      "Ġe qu",
      "Ġme mb",
      "ĠB ar",
      "Ġmemb ers",
      "Ġf oc",
      "Ġf ree",
      "ĠS outh",
      "Ġres ult",
      "ish ed",
      "Ġpos ition",
      "Ġelect ion",
      "Ġgiv en",
      "i ate",
      "Ġc ol",
      "Ġp ar",
      "ĠSovi et",
      "D r",
      "d en",
      "p ly",
      "Ġf und",
      "Ġbe aut",
      "Ġsp e",
      "Ġlaw y",
      "Ġcons id",
      "is ed",
      "Ġre se",
      "od er",
      "ain ing",
      "ĠW ar",
[...]
