#version: 0.2
Ġ t
Ġt h
Ġ a
č Ċ
Ġ čĊ
i n
e r
Ġ w
Ġth e
o u
Ġ s
a t
r e
o n
Ġ h
n d
i s
i t
in g
Ġ b
e n
Ġ c
Ġ o
Ġt o
o r
Ġ m
Ġ p
a n
Ġ f
e s
l l
Ġ d
e d
Ġ n
Ġo f
Ġ in
a r
Ġ y
a s
Ġ l
Ġth at
Ġa nd
Ġ g
o m
Ġy ou
i c
v e
o w
Ġb e
a l
Ġw h
Ġ I
' s
l e
o t
u s
i d
a y
Ġ is
Ġ it
i on
en t
e t
Ġh a
er e
Ġ e
Ġ on
T h
Ġ re
v er
u t
i g
Ġw e
l d
Ġd o
i m
ou t
a c
Ġf or
Ġh e
s e
Ġw as
Ġ k
Ġth is
Ġ -
l y
Ġg o
Ġs t
a m
r o
s t
A nd
h t
Ġha ve
a ll
k e
it h
Ġ C
' t
i ll
i f
Ġthe y
i r
Ġw ith
Ġa n
Ġ- -
o p
e c
a d
Ġ S
ig ht
Ġ r
Ġa re
Ġs h
Ġa b
Ġ j
t er
Ġn ot
ou ld
t h
Ġ u
Ġk n
om e
Th e
Ġ A
Ġa s
Ġ M
at ion
o l
u r
W e
c h
Ġkn ow
re s
ou r
Ġm e
o d
Ġwh at
Ġa t
us t
es t
Ġab out
c e
in k
an t
e e
. .
Ġl i
' re
Ġth ere
all y
ver y
Ġth ink
e w
er s
at e
p p
g e
Ġf r
o re
i l
Ġc on
Ġp e
op le
Ġ B
Ġs ay
Ġa ll
Ġgo ing
Ġpe ople
Ġ P
c t
Ġt r
a in
Ġwh o
Ġs o
is t
Ġo r
Ġj ust
m ent
i e
e ar
Ġ R
Ġc h
Ġ H
Ġ D
or t
W h
Ġp ro
Ġ out
Ġ ĠčĊ
Ġc om
a nd
u l
es s
Ġl o
Ġ N
Ġli ke
us e
Ġd e
Ġfr om
I t
ar t
ac k
Ġ J
o k
Ġb ut
Ġg et
Ġ "
Ġw or
Ġs ome
e a
Ġs u
Ġ v
Ġh as
Ġw ould
Ġs a
i ve
h er
B ut
ou g
Ġa l
on e
n t
Ġe x
Ġw ere
Ġha d
Y ou
Ġon e
Ġ T
q u
Ġu p
b le
o s
u n
Ġ G
a ke
Ġn e
id ent
Ġc an
u m
Ġ :
Ġ 1
Ġd id
Ġh is
ic e
a use
r i
ar d
Ġ if
Ġbe c
on g
Ġr ight
Ġw ant
it y
Ġbe en
Ġ K
im e
as t
Ġ very
Ġm y
Ġw ill
e m
k ing
Ġsh e
Ġwh en
Ġ F
in d
m er
Ġthe m
Ġb y
i es
h ing
Ġ us
Ġa g
Ġh er
Ġs ee
.. .
a p
ec t
r y
Ġyou r
Ġs p
Ġsa id
Ġn ow
Ġth ing
S o
e l
' m
a re
Ġbec ause
res ident
Ġm ore
ou nd
u d
Ġan y
Ġ W
e ll
Ġp l
Ġy ear
an s
We ll
Ġ L
Ġ our
ic h
Ġh ere
r a
ou s
Th at
in e
Ġn o
o c
o st
ac t
Ġthe ir
' ve
H e
Ġl e
Ġt ime
o se
oug h
Ġb ack
Ġ O
e p
Ġ qu
The y
b l
Ġh im
am e
i v
i al
an k
0 0
Ġt al
Ġc ou
Ġg ot
it t
a g
u re
Ġ U
in t
ar y
Ġ im
res s
h e
Ġthe se
Ġe very
b er
Ġa d
Ġe v
Ġlo ok
Ġre ally
en ce
Ġm an
Ġa r
th er
re at
id e
f f
Ġh ow
d ay
Ġin t
Ġs e
i a
Ġo ver
Ġof f
u ch
Ġ )
Ġw ay
i p
Ġl ot
it e
Ġp r
a k
Ġme an
re e
Ġc ould
a ge
ow n
om et
i re
n ing
mer ic
u e
Ġ Y
Ġt w
Ġp ol
Ġ 2
ea h
Wh at
ir st
Ġo ther
u bl
od y
ion s
Ġm uch
a b
Ġthe n
Ġyear s
o b
Ġs omet
Ġ (
Ġu n
Ġc o
Ġwh ich
Ġwh ere
Ġc l
ubl ic
ĠA meric
Ġa ct
Ġp art
Ġn ew
i z
Ġha pp
as s
as e
Th is
f ter
Ġ E
p ort
n ed
Ġp o
ac e
w ay
Ġd ay
ĠS t
Ġgo od
Ġg u
Ġf irst
u g
Ġdo es
Ġm ake
' ll
ĠN ew
Ġp resident
ic al
Ġcon t
Ġwor k
Ġcou nt
Ġ en
Ġcom p
on d
v i
i ld
Ġb r
ation s
Ġex p
Ġag ain
Ġthing s
s o
Ġa c
Ġc all
Ġa fter
Ġp er
Ġth an
e nd
Ġre s
Ġtw o
Ġd is
Ġsomet hing
Ġint o
b ody
Ġth ose
Ġin ter
Ġg r
Ġhapp en
o od
ĠC h
ic k
l ie
v ing
at ed
if e
Ġc ome
Th ere
n e
ac h
Ġsh ould
nd er
ad e
u c
ot her
Ġm ay
Ġl et
am p
an ce
A N
Ġc our
Ġtal k
or y
at es
Ġal so
or m
ig n
Ġev en
Ġp re
a w
Ġtr y
Ġw r
ic t
Ġk ind
Ġt ake
if f
Y es
Ġc a
Ġto day
ver n
se l
i ed
Ġu nder
u ally
Ġwe e
Ġne ed
or d
h n
Ġw om
ou se
Ġqu est
er t
oug ht
Ġa pp
p t
Ġd own
m s
Ġre c
re d
Ġcount ry
M r
Ġc r
Ġbe ing
Ġon ly
Ġwe ll
Ġ V
Ġsh ow
itt le
v ed
Ġ The
Ġbe lie
a ble
i an
Y eah
S he
Ġa m
f ore
t ing
Ġb o
ee l
th ing
Ġt ell
or s
Ġsay s
Ġl ittle
Ġ ro
Ġcom m
ar k
Ġin v
Ġman y
is h
Ġp ut
Ġd iff
at h
Ġs c
ers on
o g
et her
x t
Ġd ec
Ġin c
a v
Ġat t
Ġl ast
Ġwee k
ul t
Ġgo vern
Ġg reat
Ġw ar
Ġth r
Ġb ig
Ġ1 0
Ġm o
Ġch ild
Ġpo int
r at
w n
Ġst ate
Ġbe t
i ly
Ġst art
o ice
Ġf act
re n
an g
y s
ĠR ep
Ġf am
Ġm ost
a il
Ġf eel
on s
it ed
Ġsay ing
o ver
ĠU n
m an
Ġsu pp
Ġbe fore
im es
Ġhe l
Ġst ill
um p
Th ank
I n
t y
a king
Ġb l
Ġ Wh
Ġwh y
Ġs ec
Ġs er
Ġas k
Ġm ade
Ġj ob
ĠP resident
I N
N ow
Ġl ong
en s
Ġdo ing
Ġne ver
N o
ĠRep ublic
ĠJ o
Ġre m
Ġhel p
v es
or k
A ll
Ġquest ion
Ġl ife
Ġbelie ve
it ion
Ġp erson
Ġre al
Ġo p
Ġac c
is s
Ġt er
Ġis s
ee p
Ġpol it
Ġact ually
ut e
Ġl aw
one y
Ġgovern ment
i le
ĠM r
Ġthr ough
le ct
Ġpro ble
I f
p l
t on
Ġde f
o ld
Ġt e
en se
at er
ot h
Ġst r
Ġth ree
er al
ver s
Ġit s
oc rat
ĠAmeric an
Ġc are
b e
Ġne xt
Ġ ;
Ġp os
ĠH ouse
Ġv ot
i ble
Ġto o
u es
Ġp h
Ġm or
sel f
i b
Ġe nd
Ġdiff er
O N
f orm
Ġcon s
Ġm oney
Ġpl ay
Ġtal king
em ocrat
i ous
s s
ĠT r
g r
Ġo wn
f ul
Ġm on
at ch
u p
Ġ 3
is e
Ġin d
Ġhe ar
c on
Ġ And
Ġar ound
a ir
ĠD emocrat
r ation
Ġ1 9
Ġc ase
u ll
Ġd one
Ġre port
Ġt ur
' d
Ġwom en
way s
us h
ad y
0 9
at her
Ġtry ing
D o
am a
Ġs ur
w ard
Ġwor ld
Ġre l
ĠC l
Ġcour se
E R
Ġ $
u nd
Ġan other
at ing
f t
Ġth ought
an c
Ġin s
ve l
u al
ic ally
Ġb us
m b
Ġw ent
ig h
le ar
ent s
Ġmor ning
u ct
ert ain
, '
i et
Ġagain st
Ġal ways
Ġf in
ill ion
ment s
Ġs ame
Ġr un
Ġ 09
Ġh ome
Ġle ad
ĠJo hn
an ge
Ġchild ren
Ġn ight
Ġst ory
H ow
a x
c er
c ent
Ġim p
ĠY ork
O h
R E
Ġc ame
Ġm in
ation al
Ġc amp
Ġre p
Ġm om
Ġb u
ĠO b
h ip
ic s
Ġe ar
L et
n g
Ġm ed
Ġg ive
IN G
ĠTr ump
e g
Ġf ind
as hing
con om
l i
ow er
Ġim port
Ġb re
a it
w e
Ġs ort
Ġp ublic
Ġk eep
o ll
Ġcom ing
Ġde al
Ġbe g
Ġcon f
m in
Ġinv est
Ġf l
ĠUn ited
ĠS en
Ġv i
re t
o ol
is ion
a ug
Ġe conom
ne y
Ġfam ily
us s
ong ress
Ġmon th
ut ion
Ġpl an
op e
a z
Ġk id
ter s
o y
p ect
en c
Ġc ar
ab ly
Ġper cent
Ġb oth
Ġd r
Ġs m
Ġb as
Ġn um
Ġe ver
Ġst and
oc k
Ġs ch
Ġto ld
Ġle g
Ġimport ant
ashing ton
at or
Ġha nd
Ġget ting
ĠWh ite
Ġinter est
uc k
Ġag o
Ġany thing
vi ew
v en
Ġd es
Ġy es
al th
Ġnew s
in ess
ĠW ashington
on t
Ġc or
i x
em ber
Ġcont in
R ight
are nt
c ess
Ġe l
il it
ie nd
Ġh ard
Ġc ertain
Ġproble m
Ġdiffer ent
Ġunder st
Ġs y
Ġo b
Ġsupp ort
Wh en
Ġwant ed
Ġas s
ak es
Ġ2 0
ĠOb ama
Ġth ank
00 0
Ġe lect
Ġk ill
Ġcall ed
l es
Ġm ight
Ġg en
ĠC ongress
Ġsu re
Ġs it
at ive
Ġf ar
Ġp ay
int on
Ġa way
Ġs et
Ġf ound
es e
Ġlo ve
t s
Ġ We
ing s
d er
e ver
ĠSt ates
o in
ut h
ĠNew s
Ġhappen ed
Ġt ax
ent ion
Ġwh ether
ur ing
Ġw atch
o ok
in ce
il ity
ar g
it s
A T
as on
Ġha ving
Ġwor d
n er
s on
on ight
ist s
Ġbo ok
Ġinvest ig
Ġunderst and
Ġ .
Ġhe ad
Ġre g
Ġab le
a ve
ĠCl inton
Ġiss ue
ĠI ra
Ġpro b
Ġ 5
Ġfr iend
t e
Ġh igh
I s
Ġc lear
os ed
Ġoff ic
Ġpolit ical
v oice
Ġh our
Ġp ass
Ġco ll
Ġday s
al s
Ġdis c
Ġo pp
w h
Ġhe ard
Ġwho le
ul ar
N ING
p le
Ġ 4
Ġl ist
Ġre ad
ĠAmeric a
Ġbet ter
ĠIra q
ĠB r
id ence
ro ss
Ġbus iness
Ġd et
Ġyou ng
Ġcamp a
Ġo ld
Ġcour t
n ess
as h
Ġb it
er v
ĠM ar
Ġf our
Ġst op
Ġsch ool
r is
ou p
m ed
Ġle ft
ĠRepublic an
ou nt
min ist
k s
i o
Ġkid s
Ġth ough
if ied
Ġad d
Ġmay be
Ġ You
en ned
Ġp ri
Wh y
Ġpl ace
Ġprob ably
Ġg iv
Ġus ed
Ġevery body
Ġevery thing
Ġre t
if ic
RE A
at ter
om m
Ġst ud
ĠS o
Ġsec ond
s ol
g ether
Ġto gether
Ġwom an
Ġm en
ie f
Ġwor king
it ies
Ġm a
ire ct
Ġnum ber
Ġcampa ign
Ġb ad
ud ge
Ġpol ic
re m
Ġe ff
we en
Ġ ,
Ġb est
Ġj oin
Ġad minist
sol ute
Ġse en
Ġel se
Ġf ight
Ġhe alth
ol og
un ity
Ġsp ec
Ġen ough
Ġ ent
Ġt est
Ġf ew
ĠM c
Ġde b
Ġbet ween
Ġmom ent
n am
s h
Ġs im
e y
Ġm aking
Ġl ea
vi ous
Ġh ope
ĠC AN
Ġbre ak
D REA
Ġ id
ĠCAN NING
Ġpol ice
l and
o ot
Ġ use
Ġp arent
st em
Ġs ide
Ġlook ing
g et
Ġt onight
Ġm ilit
Ġres p
ec ause
Ġag ree
Ġop en
n s
Ġm ar
ro p
Ġkn ew
Ġpos s
iz ed
i ally
Ġto ok
Ġbr ing
Ġsy stem
Ġadminist ration
Ġn t
Ġse x
a pp
Ġsu b
ĠRepublic ans
Ġch ange
iz e
Ġwr ong
Ġstart ed
j or
u ff
Ġl ater
Ġcomp an
Ġgr oup
Ġid ea
Ġm illion
Ġsa w
he ad
c ial
Ġp ress
ĠI s
Ġgu y
enned y
l ud
at t
Ġin st
Ġe m
Ġsome body
Ġcont ro
f r
Ġp res
ot e
gr am
A s
c ed
j ect
Ġex t
g er
k ay
r ist
Ġf ive
ate ly
Ġgu ys
solute ly
O K
g an
in a
ĠI t
Ġw in
Ġinter view
n y
F or
Ġmo ve
Ġrem ember
Ġmonth s
ĠC ar
Ġtr ans
s w
re ady
ĠA d
A R
g est
Ġ ed
is m
Ġb ill
Ġf un
Ġd irect
Ġpro gram
Ġco ver
Ġpre t
p er
Ġbe h
Ġre st
i ence
et s
Ġwith out
a h
e x
Ġal ready
B C
E L
Ġt imes
m ost
Ġev idence
Ġch ang
Ġtr ue
Ġpr ot
ĠDemocrat s
Ġvi ew
Ġmilit ary
Ġs ense
Ġan sw
Ġsp ea
r u
Ġl ess
Ġre f
Ġbeg in
Ġd uring
Ġa ir
Ġme et
Ġcom es
ire d
r ow
it al
le y
Ġsome one
B ecause
u res
y ing
or n
Ġp ower
Ġsu ch
Ġ Well
Ġm ark
Ġwh ile
ĠB ill
act ly
Ġc ut
Ġu nt
Ġad v
ak en
iet nam
- -
Ġw ait
Ġto p
Ġl ear
Ġs ince
ar s
ir l
Ġsit u
Ġnot hing
ĠV ietnam
i ke
Ġs l
ot t
Ġcon cer
G ood
Ġre ason
ĠAmeric ans
Ġask ed
Ġrel ations
Ġma jor
c es
l ine
Ġa head
ĠC on
ĠA l
Ġpret ty
Ġm ind
ou n
us ed
Ġde p
Ġal most
ĠF r
d uct
al d
Ġli ve
Ġde ath
Ġv oice
Ġle ast
i ans
Ġr a
e f
ce pt
Ġlo c
iv es
is on
Ġexp l
Ġiss ues
O ne
Ġ 6
Ġf ore
are d
ĠM ary
ri b
Ġatt ack
Ġcertain ly
er ed
ri ed
Ġeconom y
Ġ ve
Ġp ict
Ġon ce
out h
ĠH e
Ġexp ect
l ed
ic es
ĠI n
id d
m m
Ġh um
ĠC our
Ġjob s
re am
Ġpolic y
Ġunt il
Ġ Th
Ġh ist
Ġinc lud
i er
on y
Ġp ast
Ġe ach
ĠR om
Ġpart ic
Ġvot e
e an
er ing
Ġlist en
Ġparent s
ap e
Ġmed ia
o f
Ġs ign
ĠG e
Ġoff ice
Ġtalk ed
Ġs ing
on ald
Ġm atter
al f
Ġh old
Ġl ine
Ġinv ol
L E
o ke
Ġt aking
is ter
Ġm akes
Ġin form
al k
Ġde m
Ġwant s
ĠK ennedy
oll ow
ĠCour t
Ġsp end
Ġb ro
om in
ĠB ush
av id
in es
Ġcl ose
M y
Ġn ame
Ġfor mer
Ġst ay
H ere
ĠR uss
Ġcou ple
o v
Ġt aken
or ies
Ġm ess
ĠS h
ĠK at
Ġstr ong
vious ly
Ġsitu ation
Ġ 9
Ġy eah
M s
r an
is ing
ĠA r
Ġch ar
Ġlo st
Ġsee ms
ĠY eah
I E
Ġt reat
Ġa ff
Ġpro v
rem e
N N
c ome
Ġw ife
as es
Ġpart y
i ent
Ġgo es
ur ity
Ġm other
ic ult
ter n
ĠM ich
Ġc ap
Ġim m
ĠCh rist
Ġf ollow
Ġpro cess
and id
sel ves
t en
Ġf air
ac y
Ġstate ment
O n
p h
Ġw ond
Ġg irl
id ed
Ġcon v
c l
Ġd ist
al e
Ġsm all
Thank s
n al
ur y
aug ht
s ide
am b
Ġgu ess
Ġrec ord
Ġlead ers
U n
i vers
Ġmo v
N ot
Ġm ust
ĠN o
Ġquest ions
Ġro om
Ġweek s
Ġfam il
ĠAd am
Ġfor ward
Ġst uff
ant s
ĠR o
ĠD r
ous and
m y
Ġpro f
ĠG od
Ġdiff icult
g ress
in s
Ġc ur
Ġfr ont
Ġcontin ue
Ġy et
AN DREA
Ġproble ms
Ġtur n
und red
b and
Ġc andid
ĠB ut
Ġ What
Ġa ge
Ġh ouse
le v
us band
Ġex actly
Ġbec ome
Ġter ms
Ġtur ned
ĠSen ator
ĠGe or
Ġinform ation
ĠKat ie
Ġf ed
om b
ith er
art ment
Ġsu c
Ġqu ite
Ġrelations hip
p r
Ġs ent
Ġs ix
st it
ag ed
Ġser ious
t o
u ment
Ġs en
an n
Ġhim self
Ġbu ild
Ġfriend s
wh ere
O R
Ġs w
Ġh undred
Ġg l
im in
Ġhe art
op s
l ess
Ġth ousand
Ġm et
Ġme ans
Ġall ow
l ing
Ġf el
id es
ĠS up
Ġexp er
Ġansw er
Ġpartic ular
Ġ es
Ġhappen s
Ġgen eral
idd le
Ġs ound
ĠA BC
Ġac ross
S t
b y
e al
Ġ 7
Ġh usband
Ġex amp
Ġar g
enc y
Ġ 8
Ġs ol
ĠB ob
ĠD avid
ag es
B I
o int
re w
le ase
Ġdo ll
se c
ĠC omm
ec k
Ġany body
ĠSen ate
g y
y ear
Ġs k
th ers
ĠO h
Ġqu ick
ath y
Ġcons erv
Ġeff ect
u b
or row
Ġf il
Ġe as
Ġor gan
Ġcr it
Ġcomm unity
Ġdec ision
Ġter r
Ġkill ed
a im
Ġh it
et er
Ġwork ed
e ople
ec h
ain ed
ident ified
Ġcomp le
A re
Ġm us
Ġp at
Ġd iv
Ġall eg
Ġor der
Ġsu g
Ġpr om
Ġop er
Ġinvestig ation
l come
y p
Ġw o
Ġl im
Ġget s
ra el
Ġdisc uss
c c
Ġm iss
Ġp ick
Ġf ire
Ġn ear
Ġn ational
ĠA n
Ġinterest ing
Ġhour s
Ġbeh ind
A t
Ġs us
or ney
ut es
ir d
Ġwr it
Ġph one
am es
Ġknow s
os p
Ġ2 00
Ġgr ound
Ġexamp le
i ec
Ġp op
Ġsh ort
ĠH ill
Ġpro p
ri es
pl oy
Ġh alf
ĠS ec
ĠD onald
ĠF l
ial s
uth or
ĠSo vi
Ġfel t
e b
Ġin f
Ġst ates
ap s
Ġevery one
Ġrun ning
Ġimm ig
J ust
Ġ ill
ret ary
Ġresp ons
Ġprot ect
Ġth reat
Ġf e
ter day
Ġspea k
Ġmark et
Ġhist ory
L ook
er y
re et
as ed
Ġdo ct
Ġme m
Ġli ves
Ġal ong
Ġcl ass
Ġdef ense
aug h
Ġword s
Ġret ur
D id
ion al
ĠO K
ure d
Ġte am
ib ility
ĠDemocrat ic
li er
Ġbas ically
Ġb omb
Ġwhat ever
Ġv is
Ġam ong
Ġfed eral
a ut
er ry
Ġh ot
ar ch
Ġre qu
se y
Ġan n
ec hn
Ġr ad
Ġab solutely
Ġser v
Ġvi ol
Ġfamil ies
y l
at ors
Ġb ur
Ġc ity
Ġf ather
et h
all en
Ġear ly
Ġpri v
a id
a ff
e ge
re en
Ġo thers
Ġob viously
Ġinvol ved
Ġm ur
Ġp iec
Ġf ace
Ġd ou
Ġ1 5
Ġcl aim
Ġperson al
Ġcontro l
Ġhum an
Ġt ough
Ġf ig
Ġg ave
Ġst ep
Ġv ict
Ġ3 0
Ġwatch ing
ĠMc C
Ġdeb ate
Ġposs ible
ĠIs rael
re ed
Ġh on
Ġc ost
Ġe y
our nal
Ġrec ent
Ġto m
Ġd ied
Ġg one
ent y
Ġe mb
ĠK h
ra b
Ġar t
C H
E very
S ON
i or
Ġc ent
or th
om ing
Ġe qu
Ġme mb
ĠB ar
Ġmemb ers
Ġf oc
Ġf ree
ĠS outh
Ġres ult
ish ed
Ġpos ition
Ġelect ion
Ġgiv en
i ate
Ġc ol
Ġp ar
ĠSovi et
D r
d en
p ly
Ġf und
Ġbe aut
Ġsp e
Ġlaw y
Ġcons id
is ed
Ġre se
od er
ain ing
ĠW ar
Ġph ot
Ġt echn
Ġm ention
Ġg un
Ġe ither
Ġapp ro
Ġsug gest
L L
S ome
re ct
ur s
ie ld
Ġsee m
Ġstand ard
A l
C h
or ter
ec ess
ĠD o
ĠG r
Ġsomet imes
Ġyes terday
att le
Ġmov ie
9 1
S h
Ġ This
Ġh osp
Ġb ud
or ry
Ġf ut
Ġn omin
Ġsec urity
ER T
Un identified
f ort
pp ed
Ġtr ou
ear ch
Ġsa f
un ch
Ġle vel
Ġbl ack
Ġsim ply
Ġlea ve
ĠRom ney
lev ision
e v
e ad
p ec
Ġ That
Ġe ight
ac es
ĠC o
ĠC amb
Ġde ad
Ġpr ison
Ġbr ought
Ġgr ow
ang er
iet y
M m
a ul
ou ge
Ġb en
Ġto wn
ĠR ouge
Ġch allen
Ġthem selves
Ġhapp y
Ġspec ial
Ġcompan y
ĠGeor ge
Ġrese arch
Ġfut ure
ĠCamb od
O kay
Ġh u
Ġc reat
Ġn a
Ġwe ap
ist an
Ġch ance
ĠH ar
Ġne g
ĠY es
ĠKh mer
S en
a el
h an
Ġb illion
Ġf av
Ġf ull
Ġj ud
Ġtr uth
Ġpro sec
ĠT imes
ug g
vel op
Ġear lier
c k
Ġ est
is l
Ġto t
Ġst ories
ro om
Ġtr ied
Ġout side
ri ble
Ġinc re
Ġhear ing
Ġreport s
Ġleg al
Ġ20 1
Ġsuc cess
Ġmur der
P eople
an e
Th ese
ĠC NN
Ġpolit ics
A n
c ri
r act
t ed
Ġt ro
Ġa p
Ġn ation
Ġn ecess
Ġex c
itt ing
Ġfin ally
Ġmin utes
olog y
Ġbegin ning
ĠSup reme
E N
re st
Ġh or
it ness
ĠM an
Ġpe ace
Ġde velop
ap h
Ġlook ed
Ġmus ic
B S
b all
on n
Ġc red
or ce
Ġfor ces
res ent
ep t
Ġ5 0
Ġclear ly
Ġopp ort
Ġwond er
Ġw alk
ar ily
ĠA t
ĠG o
itt ee
Ġte levision
b r
er a
Ġh ur
Ġc e
Ġc ases
Ġm ain
ĠP al
Ġsee ing
Ġatt orney
Ġleg isl
Ġent ire
Ġinclud ing
I S
r om
Ġp ot
ĠI ran
Th en
Wh o
mer cial
Ġev ent
Ġeconom ic
Ġr is
Ġv ide
iz ation
Ġgen er
Ġcoll ege
Ġcompan ies
2 0
r ic
r uct
Ġt yp
it or
if ul
ĠM iss
Ġtr ial
Ġso ld
Ġpro duct
ĠJ ack
Ġus ing
itt ed
ĠU S
O B
en n
Ġf all
Ġsh ot
Ġthink ing
Ġso cial
Ġcomple te
Ġtom orrow
Ġbud get
a ur
i ents
Ġw ater
Ġs ell
on es
Ġh ost
it ive
Ġf ail
id ay
Ġj udge
ĠA ll
Ġcon d
ĠP h
ap an
ward s
Ġdr ug
Ġfav or
5 0
A b
u ly
Ġd est
Ġn ice
Ġl ight
al if
ir c
Ġli ber
Ġso c
Ġch arg
art y
ell ig
Ġway s
Ġwr ote
Ġins ide
Ġbeg an
ar ge
id a
Ġre d
Ġre ady
Ġr ul
Ġli ving
Ġcomp et
Ġtell ing
Ġ19 9
Ġpict ure
aught er
Ġpriv ate
Ġspe ech
ig ned
Ġwith in
ĠJ ust
Ġneed s
Ġsupp osed
Ġmess age
Ġdoll ars
C an
T o
m en
in c
Ġm iddle
os s
Ġse ver
Ġthousand s
Ġpiec e
Ġs on
Ġs orry
re c
Ġb ir
Ġf ood
Ġre form
ur ance
ĠB l
ĠD ep
ĠT V
ĠSt ate
Ġpre p
ivers ity
stit ution
Ġexper ience
Ġimmig ration
Ġa uthor
Ġb ase
Ġo cc
Ġm ag
Ġdo c
ĠS p
Ġare a
Ġro le
anc es
Ġbu y
Ġpass ed
D A
P resident
a bl
Ġa w
it ions
en eral
as ter
ol ks
ĠJ apan
ĠK athy
Ġhappen ing
Ġwr ite
Ġlaw s
fr ic
H is
re nt
Ġre act
ke nd
Ġan t
ĠA fric
ain s
ĠN ational
Ġcan cer
Ġter m
E x
O ur
g ed
Ġs earch
or ida
Ġl arge
Ġwh ite
Ġre ce
ĠC ity
ur ch
It s
Ġright s
iv il
Ġsing le
pec ially
Ġsever al
G o
K AT
h aps
m ing
o ve
er ence
ou d
at ur
Ġb ab
Ġd ri
Ġr ather
Ġj ournal
il es
Ġso on
Ġse nd
Ġbeaut iful
Ġ Z
or b
Ġn orm
al ity
ĠP at
ug ust
Ġshow s
Ġcor rect
Ġ They
ar ing
ĠC ap
ul ation
ĠUn ion
Ġacc ount
Ġmin ute
Ġquick ly
I D
l t
Ġa v
Ġf ine
Ġn on
Ġg ame
ic ated
ĠI m
Ġas king
ap er
Ġno body
Ġim ag
Ġlook s
Ġpr im
av y
Ġdiffer ence
Ġtax es
Ġvict im
alif orn
Ġbir th
W ith
l in
Ġw itness
Ġc re
Ġo kay
or ters
Ġof ten
ĠS c
Ġknow n
Ġpo ll
Ġsc en
Ġdec ided
Ġfeel ing
Ġfight ing
Ġchang ed
Ġconserv ative
ĠFl orida
h mm
is c
Ġf olks
ar a
ac he
Ġst at
ear s
Ġcou n
Ġcount ries
Ġthank s
Ġmeet ing
Ġann oun
Ġweap ons
aliforn ia
m ore
on a
Ġo h
Ġp ain
ĠM ed
Ġch ief
ĠJ r
Ġany one
Ġatt ention
Ġop in
Ġadd ress
Ġloc al
Ġfoc us
a ult
g es
n ect
at ives
Ġc irc
Ġm ass
Ġp ull
om es
ĠP arty
itt en
end ed
ĠCh ina
Ġcr ime
ail s
Ġplay ing
Ġpres ent
LE Y
Ġes pecially
Ġtro ops
J o
L I
y n
Ġb attle
Ġd anger
Ġsh oot
Ġ1 2
Ġexp ert
ĠCh ar
og r
ĠBr it
Ġfig ure
n ow
ĠI nd
Ġre ach
ĠC alifornia
Ġr ace
ĠJ im
ĠF red
Ġcomm un
Ġind ust
Ġgroup s
ĠRo ber
Ġsus pect
Ġhu ge
o on
at ure
it ch
Ġd ra
id ual
ĠW ill
Ġen g
Ġinc red
ull y
Ġgiv ing
Ġmention ed
an y
ver t
ĠA ugust
Ġcon vers
Ġres pect
Ġlet ter
R ep
a f
m as
ou ch
Ġb i
Ġb ody
Ġf ac
Ġl and
ĠC ON
if y
ĠS ch
ĠP aul
Ġv al
Ġsp ent
Ġad m
Ġper haps
ens ive
Ġmed ical
ĠCar ol
Ġconcer ned
ĠMich ael
ĠCambod ia
l er
Ġh op
Ġb all
Ġc am
ĠA N
ĠA s
Ġex ec
Ġ1 00
Ġeven ing
Ġvot ers
Ġind iv
ĠDep artment
L ike
O f
b ers
o es
Ġt akes
ess ion
ĠK ing
Ġpresident ial
Ġinter n
Ġwee kend
Ġins urance
Ġeff ort
Ġlear ned
Ġserv ice
Ġopport unity
orb ache
orbache v
it iz
Ġc ause
Ġd eep
Ġhe ld
am ed
Ġr id
ol ution
Ġcomp l
gr ound
Ġjoin ing
ĠRuss ia
OB ERT
Ġindiv idual
E D
i ation
p ond
at ic
Ġc ivil
Ġl ab
us es
Ġse ven
ĠChrist mas
A L
Ġth ird
Ġs al
is ions
it er
Ġf ur
ar r
Ġr ap
Ġsu ff
Ġbec ame
Ġmy self
ĠE d
ĠSt e
pt ion
Ġbig gest
Ġbro ad
Ġill eg
ĠCON LEY
g s
u nt
Ġa ud
Ġb ord
Ġm ot
an ia
Ġl at
Ġact iv
enc es
Ġ4 0
Ġspend ing
Ġsoc iety
S H
v ent
on ic
Ġc le
Ġthat s
ĠN orth
Ġper form
Ġro ad
Ġcomm on
Ġdef in
az ing
Ġoffic ials
Ġdirect or
Ġterr or
ĠAN DREA
C om
e ed
w o
as ons
ĠG eneral
ri z
Ġwill ing
Ġact ion
Ġwork s
Ġmo ving
ib ly
Ġhand s
Ġcontin ues
Ġlear n
Ġ6 0
Ġfore ign
Ġcur rent
ĠHill ary
Ġdou b
Ġben ef
Ġpot ent
I m
Ġ ĠĠčĊ
in o
Ġfor m
Ġk ey
Ġst ore
ĠJ er
Ġ1 8
Ġyour self
ĠW est
uc lear
Ġlong er
Ġsex ual
Ġem ploy
Ġed uc
Ġexpl ain
Ġpict ures
B y
M ay
w ork
Ġa ut
Ġb ank
Ġl ate
om an
Ġfor ce
ad d
ĠM ark
ĠP r
Ġch eck
Ġsp oke
ell ow
Ġse at
ip s
Ġcl os
Ġwr itten
iss ion
Ġstr ate
Do es
Ġsur v
Ġmar ried
Ġtrou ble
Ġvide o
Ġlat est
f g
u ed
Ġs ir
od ay
ul f
un e
Ġcall s
Ġkind s
og n
Ġfin anc
Ġreg ard
R OBERT
e ff
o le
s y
Ġf ill
ĠS he
res pond
Ġpr act
ab ility
ord ing
Ġmar ri
Ġcandid ate
Ġretur n
ĠMcC ain
Ġce le
ellig ence
Ġcre ate
1 1
t ain
u rop
Ġ '
or ld
Ġl if
Ġre v
Ġre asons
Ġr ac
Ġlo se
Ġwor se
ĠG u
Ġneed ed
Ġfin al
Ġhosp ital
Ab solutely
f ully
i am
er m
Ġd ie
Ġg on
Ġdo or
im ate
ĠA fg
Ġpro d
Ġcom b
Ġun c
Ġbas ed
Ġpat ients
A meric
H i
i k
Ġs itting
it z
Ġd en
Ġn uclear
im p
ro ve
ĠA rab
ĠJ uly
Ġwor th
ĠT H
iv ed
Ġdis app
Ġrec ogn
Ġdef end
Ġrep resent
Ġwait ing
Ġris k
rec iate
p or
Ġt our
Ġb ott
ĠC ol
Ġr an
Ġj ury
Ġtr ack
ĠO n
Ġ2 5
ĠE urop
Ġshow ed
Ġam azing
Ġcomm and
Ġplay ed
Ġreport ed
Ġchar ac
Ġinf l
Ġbab y
Ġopin ion
Jo hn
b s
f ect
i od
k ed
p ris
Ġc ra
Ġp ush
Ġd aughter
Ġl ow
Ġfor get
Ġtr a
Ġde v
ĠF BI
Ġcomp ut
Ġgovern or
ĠUn iversity
pl ace
Ġleaders hip
Ġbuild ing
Ġhon est
2 5
F irst
u ce
Ġit self
ĠC BS
th e
ĠM in
ĠW orld
Ġbr ief
Ġbo ard
Ġdec ide
av an
EL SON
Ġhundred s
n es
r ict
Ġ There
Ġw ind
Ġs our
re g
Ġp an
Ġon es
Ġst ri
Ġst aff
ĠA ss
Ġcom ment
Ġsee med
iz ing
Ġsur pris
Ġdet ect
Ġcomplete ly
Ġdoub t
A M
S T
c rib
Ġth er
er r
Ġs ong
Ġc ross
Ġc itiz
Ġm ill
ke y
ĠC ent
ir m
od e
ĠN ELSON
ry ing
ud e
Ġad vert
Ġar rest
Ġcall ing
Ġper iod
vern or
Ġimag ine
O P
e xt
m mer
Ġh ar
ot s
Ġha ir
op er
Ġtr ust
Ġlike ly
Ġsp ort
Ġcr imin
Ġstart ing
Ġcare er
Ġimp act
Ġconf erence
Ġplan e
Ġrespons ible
Ġdest ro
ĠAfg han
H er
b or
h ow
r al
Ġw ish
Ġd am
ar ies
ĠS y
Ġab use
est s
ep end
ĠY oder
Ġac cept
Ġte ach
Ġph ys
Ġnum bers
Ġstud ents
Ġchang es
Ġmarri age
avan augh
1 0
b ook
e es
h am
o x
p ed
Ġ ess
Ġt ouch
Ġf ix
Ġcon nect
ist ic
ĠK avanaugh
ound ed
Ġany more
anc y
ex ic
Ġmajor ity
Ġnorm al
ogr aph
O M
O W
a ud
k er
Ġ ide
Ġw on
Ġc ell
Ġo il
al y
ac ed
ore d
ort ion
Ġlo s
em pt
Ġad op
Ġgu il
ict ed
Ġagree ment
Ġprov ide
R e
c ast
o ff
le ased
ent ly
ĠJ an
ĠK u
IN E
Ġcover age
Ġlawy er
Ġt en
Ġto r
Ġm is
ĠI f
ĠA m
We lcome
ce ed
ĠB ro
ĠP ro
ĠR ich
ĠH ow
Wh ere
Ġqu ote
ag o
Ġam ount
Ġ19 8
az ine
Ġopp os
Ġgirl s
Ġparticular ly
Ġnear ly
Ġdoct or
Ġneg ot
Ġnecess arily
Ġcam era
Ġexec ut
riz ona
ĠJer sey
M c
i res
u le
it ing
Ġp ost
Ġp lease
op h
Ġtr ip
Ġtr aged
Ġde li
ĠJ udge
Ġbo y
Ġhelp ed
Ġreal ity
Ġvot es
ĠBr own
Ġsim ple
Ġmove ment
Ġed itor
Ġfun ny
Ġra ise
Ġtreat ment
Ġhur t
Ġant i
Ġcle an
1 4
g ing
u el
Ġ ought
Ġp aid
Ġn et
id ing
ver age
Ġdo g
ir on
pp ing
Ġv ol
Ġim med
ood s
Ġcr is
Ġdec isions
Ġalleg ed
ĠSec retary
Ġcent er
Com mercial
H ave
J udge
O r
T I
a ith
l f
Ġp ur
an an
et y
Th ose
Ġwe lcome
st er
ĠR ight
Ġlo ved
Ġsu per
ep ar
Ġse ason
Ġbr other
Ġput ting
ĠJo e
Ġter rible
Ġpolit ic
Ġlead er
ĠJust ice
Ġdoc ument
Ġindust ry
ĠSte ve
sy ch
: ...
A ny
d ing
Ġ Q
Ġ ident
Ġw al
Ġs at
Ġs epar
Ġb ed
Ġb ar
Ġin n
st r
ĠA rizona
ĠP eter
ĠD ay
ĠE x
Ġbl ood
Ġ19 7
Ġresp ond
Ġarg ument
Ġwrit ing
Ġdoct ors
Ġreact ion
ĠBrit ish
A fter
G E
d den
r ay
Ġp ers
am m
am ent
Ġme ant
Ġsu dden
ĠG orbachev
um e
Ġ1 1
Ġbr ain
Ġdis ag
Ġgr and
Ġro ll
Ġser ve
Ġdes crib
Ġcor respond
Ġelect ed
ĠIraq i
Ġdem and
Ġeas y
Ġrul es
ĠAfric an
Ġdestro y
3 0
P R
U N
U R
e lect
i ers
t ime
z y
Ġf oot
ar ry
Ġl ower
ic ago
le ment
ĠS und
ĠM exic
est in
qu e
iv ing
uch anan
ug ht
Ġapp reciate
Ġey es
Ġtechn ology
Ġsaf e
ĠGo vernor
Ġmag azine
Ġconvers ation
Ġfur ther
ĠSund ay
S ure
i um
Ġ vers
Ġa f
Ġs ite
Ġs ister
en ed
as ing
ic le
Ġfor th
st ant
all ed
Ġr ate
Ġ1 6
Ġpl aces
ress ion
ĠE ast
ĠCh icago
Ġacc ident
Ġvot ed
Ġviol ence
Ġlegisl ation
imp son
ĠSy ri
F rom
O L
Y our
ent le
ig an
ĠM ike
Ġwho se
ĠF or
That s
Ġback ground
Ġgot ten
Ġpr ay
Ġca ught
Ġcr ash
Ġmo ved
Ġfl o
rop ri
Ġinst ead
Ġfe et
Ġcharg es
e et
w ood
re ad
it ter
Ġm iles
Ġf ear
Ġl uck
om p
le t
Ġre lie
Ġst age
ĠM ay
ĠD an
Ġpro gress
ul ations
Ġde l
ea gan
Ġal one
ĠT om
ĠW all
bl ing
Ġcont rib
Ġen f
Ġacc ess
air s
Ġspea king
ĠRuss ian
Ġfil m
reed om
Ġbord er
Ġcele br
Ġcharac ter
Ġtraged y
e in
e ach
g ment
o ard
s c
w ait
Ġs ides
Ġm id
Ġn ine
us ion
Ġk ept
ir t
ĠM os
ur g
ct ion
Ġtr aining
Ġch o
ĠK ING
Ġint elligence
Ġ2 4
Ġper fect
Ġser ies
Ġrem ark
Ġend ed
Ġpress ure
Ġchar ge
Ġsen ior
Ġsk in
Ġlim its
Ġmem ber
yl v
Ġchallen ge
Ġincred ible
Ġcris is
u ing
Ġt em
er ve
Ġl ines
ic ine
ow d
Ġhe ll
Ġst ra
Ġcon c
Ġcon gress
ĠP en
Ġex cept
el f
ra id
Ġen v
Ġapp ear
Ġsec ret
Ġdef ic
Ġrep orters
Ġoffic er
ex as
Ġcap ital
Ġprof ess
Ġconsid er
Ġest abl
ĠCarol ina
Ġcomput er
ĠKu wait
C E
p ir
at s
Ġf ly
ar ah
Ġl iter
Ġst reet
ad es
th a
ĠM ass
ĠP ost
Ġch oice
ive ly
Ġsp ok
ite ly
Ġen c
Ġbig ger
Ġstand ing
Ġoffic ers
ĠAr my
Ġliber al
Ġilleg al
Ġdisag ree
Ġaf raid
c il
g in
h ood
er man
Ġb orn
Ġd ro
Ġd ad
ar l
Ġbe l
ig er
im ony
ir gin
Ġu lt
Ġcon duct
ĠR eagan
ea g
el s
ĠSt reet
ict ion
Ġtell s
Ġthr ow
Ġfact s
over ed
Ġem ot
Ġcontro vers
Ġdep end
Ġcrit ical
Ġrad io
Ġappro ach
Ġcreat ed
Ġprosec ut
Ġtot ally
ĠJapan ese
ĠRober t
Ġpotent ial
1 3
E ven
a vi
u ments
Ġ z
Ġc as
Ġn amed
Ġl ed
al se
Ġon line
Ġthey re
ĠP ol
Ġjust ice
Ġsu mmer
Ġsa ve
ĠT ed
ak istan
ĠE l
Ġapp arent
Ġind epend
Ġpay ing
Ġjoin ed
Ġaff ect
Ġresult s
Ġwonder ful
ĠPal estin
Ġvictim s
May be
ĠAfghan istan
Ġguil ty
c o
i ated
u h
Ġt ape
in ation
Ġh ol
Ġh ate
nd a
ing er
Ġp aper
as ure
Ġl arg
le g
ro d
ad or
ad ies
ter m
ĠM on
il ar
ĠP ark
ĠJ eff
Ġsome how
Ġ1 4
ress ed
Ġar ms
Ġbelie ves
Ġro ck
Ġdet ails
Ġpolic ies
ĠComm ittee
Ġdanger ous
Ġaud ience
Ġfinanc ial
Ġess ent
C l
U D
a u
i ately
u it
y ond
in ter
er c
Ġp sych
Ġd i
Ġl ay
Ġg entle
Ġbe yond
Ġe mer
if t
ir ty
Ġwor ry
ĠT exas
ag er
ĠY O
Ġreport ing
li ke
Ġdeal ing
Ġdr ive
Ġve ter
Ġexpect ed
ĠMich igan
Al so
Ġcred it
Ġcrimin al
Ġlos ing
iron ment
b ed
y an
z e
Ġt able
Ġto ward
Ġp il
Ġd ream
ill e
Ġr ape
ĠM s
il t
Ġv ar
ast ic
He y
Ġwork ers
Ġen er
Ġapp l
Ġacc used
Ġlead ing
oll y
Ġtest imony
Ġconcer n
Ġra ised
Ġcandid ates
Ġclaim s
Ġphot o
fort un
Ġsold iers
KAT IE
Ġmill ions
E E
I CH
T oday
W as
W ere
Ġa verage
re y
is es
Ġp age
Ġf ield
Ġf alse
ic king
et te
ly n
ad a
Ġab ortion
ĠB er
ĠP akistan
ĠN ow
Ġup on
Ġne igh
ank ly
Ġen em
ĠCh ris
Ġcr owd
Ġsc reen
Ġfam ous
Ġconf l
Ġob ject
Ġelect ions
Ġstud y
ru pt
Ġcut s
ĠFr iday
Ġvis it
Ġrecent ly
Ġprod uc
ĠRich ard
Ġimmed iately
h old
l ant
in ed
it als
Ġc al
Ġc ult
Ġo pt
Ġm ist
as c
as k
Ġg as
ac hing
ĠA b
ĠG l
um b
ard s
ass ador
Ġdis p
Ġwar ning
Ġsec retary
Ġstr ugg
Ġimp rove
Ġfl ight
ock ed
Ġass ault
Ġsub ject
Ġsl ow
Ġhold ing
pr ise
Ġallow ed
Ġsound s
ĠBob by
Ġdiscuss ion
ĠBar ack
Ġlawy ers
Ġprosec ution
Ġtot al
ĠMed ic
ĠInd ian
Ġeduc ation
Ġinfl u
1 5
n oon
s et
u ary
v ille
Ġs le
Ġb ag
Ġp le
ic ation
Ġbe at
Ġre leased
im ately
Ġu nd
Ġli ved
Ġthink s
ĠB uchanan
ĠP res
Ġtr ad
Ġtr uck
ea red
ĠG ood
ound s
ber g
ip l
Ġafter noon
Ġapp oint
Ġthrough out
Ġ19 6
Ġrel ig
Ġstop ped
Ġspec ific
Ġext ra
Ġattack s
ĠIn tern
Ġfollow ing
Ġrequ ire
Ġey e
Sen ator
Ġtyp e
Ġav ail
Ġcitiz ens
Ġenv ironment
1 2
1 9
I A
r acy
Ġa id
Ġs we
Ġb al
Ġm od
et ts
Ġst re
Ġwor st
un g
ĠK ore
ag ing
Ġpr oud
Ġcomm ittee
Ġatt empt
Ġcoll ect
Ġadd ition
Ġpri or
Ġadv is
ĠCon ley
Ġve h
Ġlisten ing
ĠJack ie
Ġscen e
ĠTH E
Ġsport s
Ġstra ight
D ER
I G
S omet
d o
g ency
m p
o res
Ġs an
Ġs ad
Ġb an
Ġf reedom
Ġd in
ig in
Ġst ation
op p
ĠA ct
Ġpro ve
ĠN AT
Ġpart s
ĠV irgin
Ġsc and
air man
Ġinterest ed
ĠCongress man
Ġopen ed
Ġdist rict
Ġcrit ic
Ġalleg ations
Ġpop ular
cri be
Ġbott om
ĠEurop e
Ġcra zy
Ġadvert ising
Ġinn oc
N A
O X
O b
V ery
a i
e en
Ġ ir
Ġs ick
Ġs elf
Ġf ired
Ġn atur
Ġyou re
us ter
ĠC an
Ġu r
ĠM itt
Ġli e
Ġor igin
ĠH amp
ĠN PR
ĠJ ones
Ġwor ried
Ġtw enty
Ġinc ident
Ġpoint s
Ġreal ize
Ġacc ording
Ġind eed
ilit ies
Ġopp osed
Ġspec if
Ġprogram s
Ġconserv atives
Ġincre ase
Ġprim ary
Ġcirc um
Americ an
Ġtra vel
ipl om
Ġavail able
A g
g o
j oy
o id
Ġ #
en ing
Ġc ream
Ġm oder
Ġin j
Ġl a
Ġl ack
ic ations
ow s
Ġst ar
st on
ĠS H
Ġsh are
Ġj ump
th ough
ĠM o
Ġtr ade
Ġor d
Ġpro ject
Ġde g
ĠJ ames
Ġ1 7
Ġag reed
el ts
Ġar ch
Ġpr ice
Ġco ok
Ġrec omm
Ġrem ind
ues day
anc ed
Ġear th
Ġschool s
Ġview s
Ġage nda
Ġorgan ization
Ġrespons ibility
Ġnomin ee
Ġsuccess ful
Ġmass ive
ĠWill iam
Ġpur p
Ġwal king
Ġcorrespond ent
Ġessent ially
elts in
K ennedy
b ack
c ow
e ated
f act
g th
o ber
w ight
Ġs igned
it ude
Ġto wards
Ġm ater
et t
ut ions
um n
ra ham
ag on
Ġevery where
Ġoff er
Ġco oper
Ġpart ies
Ġdis e
Ġpre c
Ġam b
Ġset t
Ġdet er
Ġpower ful
Ġhist or
Ġstandard s
Ġnomin ation
Ġfavor ite
Ġannoun ced
Ġshoot ing
Ġdefin itely
Ġstrate gy
Re ally
Ġexecut ive
ĠMos cow
Ġener gy
T wo
w ise
Ġt ens
Ġc ust
Ġm ach
Ġp ack
Ġp un
an ch
Ġf ast
ut y
ig gs
ĠJ ud
ĠT uesday
ĠF oot
ĠL os
Ġcou p
Ġad ult
AN INE
Ġtalk s
Ġpre d
Ġshow ing
Ġser ved
Ġstud ent
Ġdeb t
sh ire
Ġcover ed
Ġconcer ns
Ġes c
onn a
Ġstat us
Ġintern ational
ĠMexic o
Ġconfl ict
ĠHamp shire
M ost
T ake
r ants
y le
z z
Ġt end
is hing
es se
Ġd on
Ġin it
ar on
Ġg e
ĠC or
Ġcon stitution
ĠR e
Ġher self
Ġour selves
Ġar ri
ĠE ng
Ġacc us
Ġmin or
Ġbre ast
Ġbook s
Ġoffic ial
Ġinst it
ĠAn ge
Ġgrow ing
aur a
Ġprep ared
ID EN
Ġide as
Ġenf orce
Ġdefic it
Ġapparent ly
ĠMon day
ĠVirgin ia
2 4
A mb
H m
P ro
W ould
k es
n ie
p s
Ġs qu
Ġh omes
Ġwh om
ot a
ig her
Ġst e
Ġan g
ĠS arah
Ġr ich
th at
Ġknow ing
Ġfr ust
Ġfr ankly
ĠB e
Ġcom fort
Ġlo ss
ĠG ulf
ĠL e
Ġtw eet
Ġco ol
ase y
Ġpo ison
Ġcomm itted
ang u
Ġfeel s
Ġob s
Ġjoin s
Ġdep artment
Ġbro ke
Ġhor r
Ġhor rible
Ġevent ually
inc ip
Ġrece ived
ropri ate
Ġrelie f
0 4
5 8
B e
B ill
T r
W ow
m ark
p ro
v al
Ġs il
Ġs ens
at a
Ġh ous
Ġm atch
Ġf ake
us etts
ro g
ill s
ĠS er
Ġch urch
ĠH olly
ĠJ on
her n
Ġex ist
ĠF ord
ap ol
ĠL a
iv al
Ġco ld
Ġcl osed
Ġpo or
ach usetts
Ġsc ient
ren ch
Ġacc ur
Ġpos itive
Ġsur prise
ĠOb am
Ġdr ink
Ġra ising
Ġserious ly
cri pt
Ġsurpris ed
ĠFoot age
9 8
E S
R A
S ec
V ice
l im
p re
y al
at al
Ġc op
Ġm ent
Ġp en
Ġf em
Ġf aith
Ġg ather
ic ate
ro s
Ġan aly
ĠS am
ĠS and
Ġsh ip
ur b
ur al
ist ance
ĠN E
Ġex am
ĠW oman
Ġen joy
AN A
Ġwatch ed
olog ical
Ġposs ibility
ĠVietnam ese
IE D
Ġtreat ed
Ġaff ord
Ġap art
Ġwalk ed
Ġsell ing
Ġfail ed
Ex actly
ĠChar les
Ġrev olution
ĠJan uary
Ġhol iday
Ġstre ets
Ġinnoc ent
3 5
B ush
F IED
M ore
c om
Ġt arg
Ġs ect
Ġh igher
Ġm ine
Ġf ant
ar ian
Ġg rew
om en
Ġe at
out hern
ir ing
Ġsh es
Ġab ility
ĠM or
ĠP et
ct ions
ĠN ations
ĠJ ean
Ġsu p
Ġal ive
ĠG OP
are n
Ġpl ans
ĠL et
Ġpr ices
Ġpr incip
Ġun fortun
end ment
Ġpre m
up id
Ġmin ister
Ġrep orter
enc ies
Ġcar s
Ġsm art
Ġread ing
Ġlea ving
Ġdirect ion
ĠCon stitution
Ġ9 0
Ġconsid ered
Ġcond itions
Ġocc ur
Ġperform ance
ĠGu ard
Ġcomb at
Ġpan el
TI FIED
ĠSyri a
Ġliter ally
ĠMass achusetts
ĠMedic are
IDEN TIFIED
C oming
J ANINE
W ill
a uc
e il
i ver
Ġn one
Ġl adies
Ġl angu
Ġst im
Ġst ock
ĠC oll
Ġr ule
ol ic
ĠP l
ĠH ED
Wh ich
ĠK im
Ġsp ir
Ġpl ant
ak ers
ĠY eltsin
ace book
Ġgu est
Ġapp eal
Ġbo ys
Ġperson ally
Ġins pect
Ġbu ying
Ġcoll eag
ĠMar tha
Ġext reme
Ġsign ific
Ġwond ering
Ġsol ve
Ġsus p
Ġcol umn
ĠHar ry
ĠAt lant
Ġexpert s
Ġhop ing
Ġvol unt
Ġdescrib ed
ĠYO DER
ĠHolly wood
ĠHED GE
0 1
P l
S ee
b urg
Ġ &
Ġ ver
Ġ ice
Ġf re
ĠI ll
Ġre ve
ac are
Ġst upid
Ġsh own
ĠM iddle
res h
ĠB ost
ĠB ret
Ġch e
ĠT ur
Ġus ually
ĠL arry
ĠO ne
Ġgreat est
Ġsur ger
Ġinvestig ators
Ġchang ing
Ġref lect
Ġmiss ing
Ġprop os
Ġhosp itals
Ġdrug s
Ġarrest ed
Ġenc our
Ġdro pped
Ġneigh bor
Ġnatur al
Ġspecif ically
Ġrecomm end
ĠBost on
2 2
4 0
f er
l ines
Ġw all
Ġd iplom
ic ed
id ge
Ġre lease
Ġgo al
st ein
Ġj ail
our i
ĠD wight
Ġcom ments
ess ions
Ġany where
oc iation
Ġ2 1
Ġen orm
Ġres ol
Ġpre vent
Ġsc ience
Ġhelp ing
Ġconf idence
Ġsim ilar
Ġbring ing
Ġeffect ive
Ġcost s
Ġexc ited
ĠMiss ouri
ĠAugust ine
Ġbroad cast
Ġadop t
ylv ania
Ġestabl ish
inter view
ĠAnge les
A r
B r
I R
I T
i ant
i ber
k now
n ers
o o
r d
Ġt re
Ġw ed
Ġb and
Ġb ought
Ġc ash
Ġp ubl
Ġd ate
Ġd ress
Ġn ames
st ruct
Ġch em
Ġpro ceed
ĠN ancy
Ġsome where
ĠT w
em ploy
ĠF acebook
ĠL ond
Ġ2 9
Ġun f
Ġun ion
Ġlet ters
Ġbelie ved
Ġbo x
Ġvot ing
Ġplay ers
ĠJohn son
Ġbu ilt
Ġgiv es
ns ylvania
Ġfair ly
ĠOh io
Ġeas ier
Ġorgan iz
Ġwrit er
Ġsaf ety
DA Y
atur day
Ġcoun ter
Ġeng ine
add am
Ġclos er
Ġrecogn ize
ĠPen nsylvania
Ġpil ot
Ġscand al
Ġcircum st
ĠObam acare
Ġenorm ous
ĠLond on
5 4
H T
N ew
a ily
d d
h ost
k et
u fact
Ġ et
Ġt ank
es tern
Ġn ature
Ġg rab
ent agon
et ic
Ġre b
Ġwe ar
Ġwe alth
Ġhe y
Ġst em
if ying
ĠS oc
ĠB ur
Ġcom mercial
ĠN avy
ap ers
Ġsp read
ĠW ith
ĠO r
Ġqu iet
bl ed
Ġad s
Ġar my
Ġlot s
ord in
Ġcomm it
Ġbl ame
Ġbre aking
enc ed
Ġbas ic
Ġsch ed
Ġnews p
Ġposs ibly
fr om
Ġpres ence
Ġcap t
Ġmov ies
ĠHar ris
ĠUS A
Ġjournal ist
ĠCent er
Ġnegot i
Ġdeli ver
UN IDENTIFIED
Ġflo or
Ġla unch
Ġlangu age
Ġstim ul
J oin
f ire
t ies
Ġ eth
en e
Ġdo z
Ġfor g
ĠS addam
Ġr out
ĠM us
ch ie
Ġthere fore
ĠH am
ĠG erman
Ġbec omes
ĠK ell
el ms
ell o
ĠL ope
Ġhow ever
ĠY our
ab eth
iz abeth
Ġcont ract
ĠWh en
Ġinterest s
Ġdes p
Ġdes ign
Ġsecond s
Ġcontro ll
AR Y
Ġadv ice
Ġdoll ar
ĠSec urity
Ġnecess ary
Ġgener ally
Ġcoun sel
LI ANA
Ġnet work
Ġinflu ence
Ġdeg ree
Ġpurp ose
Ġsignific ant
ĠLope z
* *
A S
F r
I LL
T om
T onight
f or
l aw
r ick
s p
Ġw ounded
ou l
is an
Ġb ure
Ġp ark
Ġp ath
Ġf ellow
Ġf uel
ot o
ent ed
Ġre view
Ġfor ced
Ġab ove
Ġnot e
ĠM y
ĠM ad
ĠP entagon
ĠD id
ĠN ight
ĠJ une
ĠT e
os en
ĠW al
Ġev ents
Ġar m
ak er
oth ers
Ġrun s
Ġimp each
Ġconf r
Ġcar ry
Ġkill ing
Ġdisc overed
Ġold er
app y
Ġsent ence
Ġ8 0
Ġrad ical
Ġserv ices
Ġannoun ce
Ġindividual s
Ġlab or
Ġsal es
Ġdev ast
Ġstri ke
Ġther ap
Ġpolitic ians
Ġcho ose
Ġgentle men
Ġemer gency
Ġtrad ition
IG HT
Ġdise ase
ĠAtlant a
5 2
5 9
I Z
W ait
n ight
Ġ ign
on se
Ġh ang
it ol
Ġm ob
Ġf ell
Ġf resh
Ġl ink
ic ide
ay s
Ġwe ight
ro ll
all as
ĠC asey
ill ing
ĠS ean
ĠS aturday
Ġare as
ol s
ĠR es
ĠD NA
os n
ĠG reen
em ember
ĠF OX
Ġag encies
Ġher o
Ġany way
Ġim age
Ġman ufact
Ġover wh
Ġpr ime
Ġcont act
Ġac know
Ġdis aster
ĠV ice
Ġstate ments
Ġcare ful
Ġdes cribe
Ġreg ular
ash ion
ĠFr ank
Ġ7 0
Ġsol ution
Ġgener ation
ĠPh il
Ġcharg ed
Ġwitness es
ST ER
avi or
Ġreve al
employ ment
Ġacknow led
3 6
C ome
U S
m ail
o very
r ing
r ain
y a
y ard
Ġ Ġ
Ġw ide
Ġd ark
ar z
Ġg am
om pl
ic ul
us se
id en
ig ning
Ġst ren
ĠC oun
The ir
ĠM ur
ĠP ar
ct ober
Ġjust ices
ĠR yan
Ġv ice
Ġup set
ĠG ar
um er
Ġ1 3
Ġbec oming
em s
ĠL ou
ra ft
Ġqu ality
Ġun like
Ġco ach
Ġsc ared
ĠWh y
Ġhelp s
Ġacc ompl
ĠMr s
Ġkeep ing
Ġfl ood
pect ive
ĠIraq is
Ġext ent
Ġinterview s
Ġdirect ly
ef ense
pr il
Ġsen ator
Ġpick ed
Ġpop ulation
Ġdou ble
Ġphot os
Ġsuggest ed
Ġjud gment
An other
ĠAt t
Ġbirth day
Ġbenef it
ino is
Ġpract ice
Ġsour ces
Ġsepar ate
ĠPalestin ian
ĠKore a
Ġorigin al
A K
W S
a res
b ara
c alled
i pp
k y
k en
Ġa chie
in y
in et
in ese
re l
is ters
Ġc ert
Ġc ities
Ġf le
Ġf inger
om as
Ġr ates
ist en
ĠH OL
ack s
ĠJ ew
Ġsu n
Ġex ch
os ov
un ist
ĠK osov
ound ing
Ġcomp rom
Ġdec ades
Ġbl ow
ĠAnd erson
anc ing
Ġimp oss
Ġhand le
Ġsupport ing
wh at
Ġrest aur
Ġve to
Ġdem on
ann on
St ill
BI Z
Ġoper ation
urs day
enn is
Ġbase ball
Ġpoll s
Ġrap ed
OW BIZ
Ġcult ure
ĠIndian apol
Ġswe et
Ġsan ctions
Ġenforce ment
Ġsurger y
ĠTw itter
ĠMus lim
Ġoverwh el
ĠIndianapol is
0 2
0 3
2 3
P lease
f ield
g en
i pped
l am
r ated
v ere
Ġs n
it es
Ġb unch
Ġm ort
ar n
Ġl ady
ic ious
id s
ut en
if orm
Ġr ough
ch icine
Ġcon cl
ĠB osn
ĠR ick
ĠD ick
Ġlo b
Ġlo yal
ĠN eil
Ġex erc
ri al
ĠK erry
ĠF ox
ap t
ĠO ctober
ag ic
Ġun less
Ġact ual
Ġdec ade
rat ing
Ġser ving
Ġpos itions
Ġsur r
Ġbas is
Ġleg it
Ġel imin
Ġkill er
Ġyoung er
Ġfore ver
ĠRom ania
On ce
Ġdiv orce
Ġlim it
Ġhon or
ĠAfric a
Ġjournal ists
ĠSc ott
Ġactiv ity
Ġbenef its
itz er
Ġdisapp oint
Ġfoot ball
Ġult imately
Ġemot ional
Ġveter ans
ĠIntern et
Somet imes
Ġang ry
interview ing
Ġimposs ible
0 8
2 1
4 7
A m
I C
M an
M any
N ob
b el
f ight
i que
l ight
y ou
Ġ Thank
in sey
en ry
Ġm ale
an a
Ġn erv
us ing
us hing
id ency
ut s
im b
im on
Ġhe avy
od ies
ĠB ra
Ġtr ained
Ġso ft
ĠH ol
ĠD on
ĠD et
Ġcom ed
Ġsu it
Ġv ac
Ġv irt
Ġsa ving
ĠT O
Ġsp l
oc racy
Ġse es
Ġover se
Ġun iform
Ġcont ext
Ġexp ress
Ġper man
Ġgr ad
ĠCh inese
Ġpre vious
Ġrec on
Ġsupp orters
ĠWh it
Ġhear ings
Ġtur ns
Ġfin ish
Ġcontin ued
Ġsupport ed
ĠWe b
ĠWe e
Ġbusiness es
Ġcourt room
Ġmar ch
Ġinterview ed
Ġbeh avior
Ġlear ning
ĠMary land
Ġprom ise
ĠIsrael i
Ġequ al
Ġjud ges
Ġdoc uments
Ġaw are
ĠCap itol
ĠRober ts
Ġval ues
ĠAss ociation
Ġcontrib ut
Ġspok es
Ġenem y
Ġsle ep
ĠNAT O
Ġdeter min
Ġarri ved
Ġfem ale
Ġvolunt e
ĠIll inois
Ġstren gth
ĠHOL T
uten ant
Ġnerv ous
3 1
4 3
A LL
B ack
C ongress
G reat
N ext
T ell
W AT
g n
g ia
i ar
Ġ ?
Ġ Thanks
Ġb reat
or ge
Ġm ult
Ġf it
Ġd ig
ot ed
Ġe le
Ġre pl
Ġre place
Ġwe aring
Ġhe at
Ġst ick
Ġan im
ĠA pril
ĠM AN
ĠM ont
Ġcon stant
ĠB iden
ist ed
ĠD EE
Ġde leg
Ġ" .
ĠT o
um s
Ġag gress
ĠL aw
Ġqu al
Ġint rod
ip ment
Ġun employment
ass is
Ġpresident s
Ġres c
Ġbl ock
Ġstr uct
How ever
Ġrep eated
Ġfind ing
uck er
Ġresp onse
fr iend
Ġtrans ition
Ġinclud e
Ġpartic ip
Ġsing ing
Ġconv icted
ept ember
ĠCap tain
Ġfac ing
Ġstrate g
Ġsour ce
Ġther es
Ġluck y
Ġprofess ional
Ġdin ner
Ag ain
Ġmach ine
Ġextreme ly
Ġconfr ont
ĠDEE P
0 5
M ICH
P h
e at
h our
m ber
p oint
r imin
Ġs ea
Ġs now
Ġb odies
Ġc ant
Ġm at
Ġm ount
Ġf if
Ġf ile
Ġd rop
Ġn ar
Ġg ra
ve mber
ow ers
us ual
ere nd
Ġst ood
if er
ĠS an
ĠS impson
Ġr ound
Ġsh ut
ĠA ir
ĠM el
il ing
ĠP orter
Ġch ec
ĠH OR
ĠN ot
ĠN BC
Ġal tern
ĠT en
ĠF ound
ĠF ather
are ly
ĠL at
ĠL es
Ġ2 2
Ġapp ly
Ġapp ears
Ġro b
Ġsc ream
Ġinc ome
Ġgreat er
ĠJo y
Ġsur f
Ġmom ents
Ġdr am
Ġcor por
Ġfar m
Ġset ting
ific ation
Ġinst ance
Ġprot est
ĠTh ursday
Ġsmall er
Ġmiss ion
Ġprop osed
Ġemb arr
Ġequ ipment
Ġfoc used
Sh ould
Ġdri ving
Ġval ue
Ġcompl icated
onic a
Ġteach ers
Ġconnect ion
Ġoppos ition
ĠQ u
Ġprosecut or
Ġcas ual
Ġindepend ent
Ġveh icle
Ġtarg et
Ġcircumst ances
IZ ON
WAT ER
ĠDEEP WATER
ĠHOR IZON
Ġembarr ass
3 3
4 8
C NN
H our
a ust
p an
Ġt rem
Ġw ake
at ers
or ther
Ġm ir
im ent
Ġgo ld
ĠS essions
ĠS eptember
ant ed
ie l
ĠH UD
ĠG raham
ĠF irst
ĠL ook
ĠL aura
ra ge
ine yard
oc king
ag h
Ġmean ing
Ġother wise
Ġcont r
end er
Ġres ign
Ġres olution
Ġmay or
Ġmor al
Ġsur ge
Ġconf irm
Ġcor ner
Ġob vious
Ġass um
Ġass ume
te en
Ġstud ies
Ġopen ing
Ġpres idency
Ġansw ers
ru ary
Ġmind s
Ġgl ob
Ġlim ited
Ġfire fight
Ġ200 8
eb ruary
Ġemb r
Every body
Ġcompet ition
Ġreach ed
Ġdam age
Ġtor t
ĠEl izabeth
ĠEng land
orther n
ĠHUD SON
5 3
D onna
J O
K athy
L ast
S impson
c y
d own
f ive
o e
o ch
u zz
Ġ er
er o
Ġs ke
is a
Ġo dd
or ing
or ne
Ġp urs
Ġf asc
Ġd ying
ar ant
Ġre ject
ĠC ath
ĠS af
Ġj e
Ġnot ice
Ġli ked
ĠP ort
Ġpro ced
ĠG M
ĠG old
ans as
Ġar r
Ġpr int
Ġco al
ĠSt ud
Ġen s
Ġca used
ord an
ĠV ineyard
Ġrem ain
ON IGHT
Ġbus y
Ġpublic ly
Ġfl ag
Ġcar rying
Ġass oc
Ġhead lines
ĠHe alth
ĠTh omas
ĠRom an
Ġdem ocracy
ĠNo vember
stit ute
Ġgl ad
ĠSup er
ĠAn n
Ġbomb s
Ġfund ing
Ġfund ament
ĠCo ast
Ġincre asing
Ġap olog
ĠJack son
Ġav oid
Ġpull ed
Ġdra w
Ġincred ibly
Ġsuff ering
Ġwind ow
Ġvers ion
Ġdel ay
Ġlarg er
Ob viously
ĠSH OWBIZ
Ġaccur ate
Ġspir it
Ġwed ding
ĠSoc ial
Join ing
1 6
3 4
4 4
4 5
B ob
D avid
H ello
R emember
T w
c use
c raft
h and
n est
n ew
p ay
Ġt ired
Ġt aught
Ġa th
Ġs outh
at ures
Ġc ard
Ġc atch
Ġd ed
ed nes
Ġl augh
ic i
al t
Ġha ll
ac her
Ġk ick
Ġst ress
Ġst orm
st one
ad o
ĠS outhern
Ġr ise
ur d
ĠB ank
Ġall ies
ĠD ec
ĠJ esse
ĠT ONIGHT
qu es
um an
ĠF ebruary
ap es
ell ing
ĠO F
ag n
Ġ2 6
ab or
Ġun usual
Ġcl oth
Ġgu ard
Ġcomm ission
og le
Ġatt itude
Ġreal ized
Ġ3 5
Ġtur ning
Ġreg ion
Ġdet ail
Ġdet erm
enned ys
app ed
ĠFr ance
Ġstay ed
ĠGeor gia
Ġimmig rants
Ġcol chicine
Ġphot ograph
Ġgun s
ĠDo le
Ġgrow th
Ġneg ative
Ġexc use
Ġaw ful
KAT E
Ġcurrent ly
Ġaut om
Ġphys ical
OM AN
Ġpers pective
Ġsudden ly
Ġremark able
Ġfly ing
Ġvar ious
Ġcust om
Ġanaly st
Ġorganiz ations
ĠNight line
ĠKosov o
ednes day
Ġdeterm ine
0 7
2 9
E O
H N
e gr
g iving
l o
m itted
o ved
r ich
in ing
ou ston
re p
Ġh y
Ġh at
Ġm ix
Ġp ort
Ġp ushing
Ġf an
Ġf aces
Ġd om
Ġd ue
as ion
Ġg ay
Ġg ames
ĠI I
us an
Th ree
Ġgo sh
ĠC ru
if ts
ir med
ĠS m
Ġr h
th ony
ĠM a
ch es
ĠR ad
ĠH un
ĠH iggs
Ġpro s
and ing
ĠJ ay
Ġsome what
ea ker
ĠK insey
ĠF ed
Ġsp ot
ĠW il
Ġpo et
Ġgu arant
end ous
Ġpre gn
ish op
Ġatt ract
ĠWh o
Ġstr ange
Ġend s
Ġrep eal
Ġplan ned
Ġcontin uing
Ġhigh ly
Ġhealth y
ĠIs lam
Ġair craft
Ġsign s
Ġexper i
BI LL
ĠComm and
Ġretur ned
Ġvict ory
Ġcol or
Ġocc up
ĠChar lie
Ġrac ial
ĠOn assis
reg on
AM ARY
ĠCent ral
Ġcontrovers ial
Ġunfortun ately
Ġneighbor hood
elms ley
Ġoverwhel ming
AMARY N
3 2
A pp
C onn
F R
L isten
T H
U p
c a
c ing
i at
i xt
l ife
m it
r ough
s id
v able
y r
re es
Ġc ute
Ġd ata
as tern
Ġl aid
Ġg ro
ic op
Ġbe ach
ot ing
Ġwe ather
st ery
ill ed
ad ing
ĠS aud
Ġab s
Ġj ur
Ġnot ion
ĠM att
est ic
ce ll
ĠB ri
Ġtr ain
ist ent
ĠR en
ĠH on
ĠH enry
ĠJ ordan
Ġal though
Ġno vel
Ġman age
Ġexp ensive
ĠCh ief
ick s
Ġdec l
Ġstart s
Ġfact or
Ġrem ains
Ġstr uck
Ġcons pir
ull er
Ġplan ning
Ġunderstand ing
Ġhigh est
Ġpass ion
Ġref er
Ġadv ance
Ġreason able
Ġstrong ly
On ly
Ġarg ue
Ġstep s
Ġcond ition
Ġsend ing
Ġcommun ities
Ġbi ological
Ġadm it
Ġbank s
ĠPr ime
Ġmist ake
Ġmater ial
Ġcolleag ues
Ġnewsp aper
Ġexch ange
Nob ody
Ġoverse as
Ġmat ters
ĠFound ation
1 8
2 6
4 1
A C
N ice
b oard
b ishop
c are
f ord
h en
h ad
n a
n own
w in
Ġt it
Ġt ick
Ġs isters
Ġb le
Ġb ull
Ġc rew
Ġc ode
Ġc rying
Ġo w
Ġf ires
Ġf ashion
Ġl ic
ic les
id el
Ġgo lf
st ream
st alk
ĠC IA
Ġr ising
Ġkn ife
ĠA re
ĠM OR
ĠB ig
ĠB AK
ĠB agh
ĠH usse
ĠD es
ĠD allas
Ġsu icide
Ġv ul
qu ar
ĠK ennedys
ĠF RE
ĠF oods
Ġsp ect
ĠW ednesday
ĠO regon
Ġim ages
Ġ2 7
ab ama
ĠCh uck
ick en
uc ed
Ġcr ack
ian a
Ġpoint ed
rat ulations
ĠWh ole
ens ion
Ġte en
Ġte xt
Ġhead s
Ġhead line
ĠMar ch
Ġwin ning
Ġtrans form
AR D
Ġcut ting
ĠAl an
ĠAl abama
Ġfamil iar
Ġsuc ceed
Ġpat ient
cc ording
Ġfund s
Ġchallen ges
Ġ201 2
Ġdri ver
ĠSch ool
ĠPaul a
Ġsuff ered
Ġden ied
lf are
Ġsat is
Ġdestroy ed
Ġbel ong
ĠGl ob
Ġpack age
Ġconstitution al
ros stalk
Ġpubl ished
Ġdesp ite
Ġimpeach ment
ĠBosn ia
ĠTO DAY
Ġtrem endous
ĠSaud i
ĠHusse in
0 6
3 8
4 2
4 6
5 6
A ct
I ON
S p
S ince
S te
d ad
m a
o en
v est
Ġt ight
Ġw ild
Ġs and
Ġh ired
Ġb ra
Ġb ail
Ġc ast
Ġd ump
Ġl ying
ĠI re
us ive
Ġon to
Ġwe ak
se qu
ĠC ount
ĠS her
Ġsh oes
Ġsh ocked
ĠA ust
Ġas ide
ĠM m
ĠM ILL
Ġme asure
ĠB en
Ġtr ail
Ġtr uly
ist ics
ĠH is
ĠD efense
Ġpro per
ĠN et
ĠN iger
ĠJ ared
ĠJ ournal
um ber
ĠK ath
Ġmy stery
ĠF our
ĠL ib
ĠL iber
ĠE ric
Ġres our
ĠCh urch
ord s
Ġapp eared
Ġrec ession
Ġcr imes
Ġte acher
Ġown ers
Ġ3 00
Ġrel ated
Ġmin im
Ġkeep s
Ġdes igned
Ġreg ulations
Ġstud io
AR ON
Ġref used
Ġmeet ings
ĠFr om
Ġexpl os
Ġinclud es
LE STER
Ġaff airs
Ġfil ed
Ġdiv ided
Ġoper ations
Ġfe ed
Ġrequ est
Ġbur den
ĠBar bara
Ġsold ier
ĠPh oto
Ġauthor ities
Ġrece ive
ĠMed ical
Ġsurv iv
Ġfill ed
Ġsong s
Ġadop ted
Ġdepend s
Ġstrugg le
Ġextra ordin
Ġbal anced
Ġprec ise
Ġge ys
Ġhous es
ĠNE WS
Pl us
ĠBret t
Ġchem ical
Ġstimul us
Ġbure auc
Ġtherap y
Ġbreat h
ĠRad io
ĠMOR NING
ĠBagh dad
3 9
C or
R IS
e ight
h ib
h uh
i est
i os
m akers
s ong
y m
er es
er ved
Ġw ow
Ġthe ory
Ġs ize
Ġf irm
om s
ic ip
et or
Ġdo ors
Ġst un
am ing
ill age
Ġwith d
ad s
ĠS T
ĠS w
ĠS erv
Ġsh ock
Ġsh ape
Ġnot iced
ĠA IR
Ġas pect
ĠM orm
ee k
ĠB annon
ĠR ed
ĠR ub
Ġch airman
ĠH ouston
Ġpro of
ul ate
art in
Ġsu mm
Ġal t
Ġex it
ĠT al
ĠT ri
ap ed
el ess
ĠO ff
iv en
ning s
ĠY ear
ab e
Ġact or
Ġact ive
Ġbr ings
ĠCh az
Ġcour ts
Ġapp ropriate
Ġfeel ings
Ġhel icop
Ġpolit ically
Ġsort s
Ġstand s
Ġcor ru
Ġass ess
ĠMar ine
Ġent ertain
Ġed ge
Ġcover ing
Ġsitu ations
Ġbro ken
Ġfollow ed
Ġconv ince
Ġdist in
Ġrelationship s
Ġeas ily
Ġcomple x
Ġpiec es
Every thing
Sh es
Ġdevelop ment
ĠGo ogle
Ġmain stream
ĠPal in
enn ifer
Ġadm itted
Ġdeep ly
ellow stone
ĠEurop ean
Ġpush ed
ĠMin nes
Ġdetect ive
Ġdetect ives
Ġcontrovers y
Ġlarg est
Ġrelig ious
Ġmod el
Ġarch bishop
Ġinstit ution
Be fore
Ġfant astic
ĠCoun cil
Ġcomprom ise
Ġspl it
ALL IE
Ġresc ue
nest y
Ġcloth es
Ġdom estic
ĠBAK ERT
ĠFRE SH
ĠIre land
Ġcorru ption
ĠMinnes ota
F K
F our
G e
L A
O ther
a ed
a ving
p ower
r it
r ant
r ie
v ention
Ġt ennis
in n
in ced
it a
it arian
Ġc ry
or se
Ġm outh
Ġp ed
an es
Ġf ans
Ġf ought
Ġg all
Ġbe ar
Ġis ol
Ġwe lfare
ac ing
Ġfor t
ly mp
ĠS ol
ĠS AT
Ġj our
th ia
ol ine
Ġme as
Ġli kes
Ġfr ight
ĠP er
ĠP eople
Wh ile
ĠN ic
ĠT oday
ĠL ane
Ġoff ered
ĠY ellowstone
Ġ2 8
ab inet
Ġgu ests
Ġbr idge
Ġpre fer
ĠV A
Ġam nesty
Ġwar s
Ġrel ative
Ġthought s
Ġconf ident
Ġcar ried
Ġbas ket
Ġhard er
irect or
Ġtest s
Ġtest ing
Ġbill s
Ġair pl
Ġsl ight
ĠCon nie
Ġrecord s
pr int
Ġgl ass
ĠComm ission
Ġart icle
Ġcent ury
Ġben ch
ĠCambod ian
Ġproduct s
ĠSp eaker
Ex cuse
Ġnorm ally
yn thia
Ġconvers ations
Ġrid icul
Ġcivil ian
Ġlab el
Ġhonest ly
ĠAm endment
ĠBro ok
Ġappear ance
Ġspok en
ĠMo ore
ĠLou is
Ġcert ific
Ġspokes man
Ġdram atic
Ġcasual ties
Ġske pt
Ġcoal ition
ĠDec ember
ĠMILL S
5 5
5 7
F ather
G u
G et
O ver
U T
g u
k in
m on
v y
y c
Ġs ight
Ġs ession
at ory
re al
Ġb ond
Ġc at
Ġp urch
Ġp apers
Ġf at
Ġf ool
Ġd aily
Ġn urs
ar ter
Ġwh eel
ĠI nt
ĠI ns
Ġwe bs
ac le
st ers
Ġan ger
ec ca
ĠA mb
ĠM onica
Ġcon ce
ĠP itt
ĠP BS
Ġtr illion
ĠR ob
Ġch amp
Ġch ef
ĠH ere
ĠH ey
Ġout rage
ul ated
Ġlo g
ĠT ime
ĠG ib
ĠW ait
ĠO lymp
bl es
iv ity
Ġint egr
Ġun it
Ġco ast
Ġpart ner
Ġbr and
end ing
hn er
Ġbelie f
Ġsupp ose
Ġte le
Ġplay er
gr ad
Ġdes per
ĠNews Hour
Ġtax pay
Ġsub stant
Ġinst ru
ĠCar l
ĠCar ter
Ġed ition
Ġless on
Ġless ons
Ġadv oc
Ġloc ation
Ġinvol ve
Ġbomb ing
Ġhot el
Ġrequ ired
Ġest im
Ġdevelop ments
Ġopport un
Ġprim aries
Ġmot iv
Ġterror ist
Ġpotent ially
Ġemploy ees
ĠArab ia
Ġhar ass
Ġoppos ite
Ġmoder n
Ġpun ish
Tr ump
Ġpen al
Ġsect or
Ġoccur red
ĠHam as
Ġrestaur ant
arn ell
Ġconcl usion
bel ie
Ġvirt ually
Ġchec ks
Ġsurf ace
Ġtort ure
orne ys
ĠRoman ian
Tw enty
Ġath let
ĠCru z
quar ters
2 7
5 1
5 00
A D
A Y
E C
F red
G orbachev
J im
K E
M ich
M ER
O S
P er
P at
R I
c u
f e
h ouse
k nown
n el
o lyn
r un
u be
Ġw an
at ically
Ġh ire
ing rich
Ġb ath
Ġb oss
Ġc ow
Ġo ption
or g
or ced
Ġm er
Ġm ile
Ġm amm
Ġp ounds
Ġf isc
Ġd ance
Ġn orth
Ġl aug
Ġg reen
ic ient
al ys
Ġit ems
Ġst ake
Ġst ations
ĠA aron
ĠM u
ce an
Ġli es
ie utenant
ĠH ome
and a
ĠJ en
ĠJ ul
ĠJ erry
Ġsa ved
Ġal b
os h
os ure
un k
ĠG ingrich
ĠK en
ĠK ate
Ġsp ace
Ġpl ed
Ġpl enty
ĠL ough
ra f
ra w
Ġim pl
ber ly
ip e
ip le
Ġcl in
Ġact ing
ass y
port ation
Ġdis m
Ġlet ting
Ġrec ru
ian e
Ġph r
Ġfin ished
cer pt
Ġimp ression
ven ue
ix on
Ġsy mb
Ġ5 00
wh ile
Ġpri est
Ġret ail
Ġinst ruct
Ġref erend
Ġconv ention
Ġconv inced
Not hing
Ġeffect s
Ġcrit ics
Ġprom ised
Ġemb ry
Ġentire ly
Ġant icip
Ġscen es
Ġsuspect s
Ġhop es
Ġsurv ive
ĠMin ister
Ġsurpris ing
Ġalleged ly
Ġdocument ary
Ġident ify
Ġconc lud
Ġple asure
Ġaddition al
Ġadvis er
Ġgam bling
ĠAtt orney
Ġperman ent
Ġele ments
Ġaggress ive
Ġglob al
ĠCath olic
Ġens ure
Ġrh etor
song as
Ġjour ney
Ġlaug hing
ĠLough ner
Ġreferend um
P el
c in
c ious
h od
k rain
o h
r ight
r man
Ġ ut
Ġt act
Ġt ask
Ġth irty
on ents
it able
Ġc ore
Ġo bl
Ġm ad
Ġm ap
an o
Ġin app
as y
Ġg ain
om ov
ve y
ow a
al ia
us iness
ac ity
Ġgo als
ro ad
all s
ke l
ĠC ome
ĠC ross
ir al
ĠS l
Ġab solute
Ġj ugg
ĠA c
ĠM en
ĠM itch
ĠM artin
ol f
il ed
ĠP ress
ĠP age
Ġtr agic
ĠR ock
ĠH ost
ĠH ann
and on
ĠN ev
Ġv ision
ĠK aren
Ġpl us
Ġar med
Ġse lect
ia ble
ild ren
Ġres istance
Ġrec overy
ĠV al
ty omov
Ġbl ue
Ġcamp s
Ġmed icine
Ġconf irmed
Ġdes erve
Ġunderst ood
Ġinvestig ate
Ġhead ed
Ġret ire
Ġret ired
EL LI
idd en
Ġhum or
ĠChrist ian
ph y
cl ock
Ġsen ators
Ġ8 00
Ġterr ific
Ġshort ly
Ġprison er
Ġcreat ing
Ġweap on
Ġfull y
Ġproduct ion
Ġfail ure
ĠBl ack
Ġlaws uit
Ġpresent ed
yn n
Ġdra ft
Americ ans
Ġcommand er
Ġ198 0
Ġvers us
Ġcelebr ity
Ġtem por
Ġcongress ional
uh rman
Ġdi agn
Ġopt im
Ġrelig ion
Ġinj ured
Ġadult s
Ġsil ence
Ġsup erv
Ġinspect or
Ġadopt ion
Ġproceed ings
Ġdoz en
Ġannounce ment
Ġachie ve
Ġlob by
Ġexerc ise
ĠLes lie
JO HN
Ġcustom ers
ĠCommand ments
Ġconspir acy
Ġvul ner
Act ually
ĠCount y
Ġextraordin ary
Ġwebs ite
Ġopportun ities
alys is
B A
C omm
E ar
M ar
N E
O ff
T A
T ime
T ER
V ID
b ing
d ri
f ess
j ust
k ins
p ired
s ch
w ar
y d
Ġ err
Ġs oph
Ġb other
Ġb uck
Ġb att
Ġm arg
Ġp ure
Ġd ow
ar m
Ġl unch
ic ials
ĠI r
le in
Ġis land
et ime
Ġe ating
im ming
ro l
st ance
ĠC om
ĠS al
ĠS aw
Ġr um
Ġr ating
Ġj oke
ĠM il
ur se
ant age
ĠB ible
ĠR os
ĠR ush
Ġch osen
ĠD or
ĠJ ennifer
ĠJ FK
Ġv ast
Ġex cl
ĠT im
ĠG irl
ĠF uhrman
ell ed
ĠL ew
Ġman ager
Ġact ions
Ġres ident
Ġcour age
aw n
Ġca uses
Ġsc r
Ġsc ary
Ġrem oved
pl ay
old s
ĠAnd re
Ġimp ress
RE S
Ġrep ut
Ġrep ublic
Ġbeg un
Ġinvest ment
Ġsit es
Ġhope ful
Ġtrans it
Ġtrans pl
Ġtop ic
Ġdep uty
ĠRuss ians
Ġorgan ized
Ġterr it
Ġorder ed
Ġwrit es
eb ecca
Ġprotect ion
Ġviol ent
Ġsuggest ing
Ġdevelop ed
ĠIran ian
Ġtyp ical
Ġcond em
Ġred uce
Ġrul ed
Ġcompet itive
ĠSp itzer
lin ed
Ġaddress ed
Ġbord ers
Ġmot ive
Ġterror ists
add y
Ġtra um
Ġbrief ing
Cl inton
ĠCan ada
Ġaccus ations
Ġdiplom atic
Ġnegoti ations
ĠKell y
ĠWee k
ĠThanks giving
Ġcorpor ate
ĠHun ter
ĠHon or
ĠFour th
Ġridicul ous
Ġcertific ate
Ġdow nt
1 7
M AN
P ol
S ALLIE
U h
b ably
o ley
r onic
t wo
u its
w est
Ġ identified
Ġt ill
Ġw a
Ġb ip
Ġp atter
Ġf ault
Ġg ang
ĠI d
ĠI owa
im id
Ġhe al
Ġst ores
ad em
Ġsh ared
Ġu g
ĠA uthor
ĠM uller
est ed
pp er
Ġcon struct
ĠB ecause
ĠP ac
ĠP ublic
ct or
ain t
ĠR onald
ĠD ow
ĠD irector
ĠN ixon
qu ake
Ġne ut
ard en
ĠF ore
ĠW estern
Ġpl aced
ĠU krain
Ġse vere
Ġpr omin
Ġcl imate
Ġinter rog
Ġinv ited
Ġsc an
Ġthr own
Ġmost ly
eral d
Ġdiffer ences
Ġmon itor
Ġplan es
arg o
Ġhead quarters
ris on
ĠCar olyn
Ġansw ered
Ġloc ked
Ġclose ly
Ġmiss ed
Ġappro ved
Ġ201 6
ruct ure
SH ARON
Ġdisapp ear
ĠRight s
Ġtem per
ĠPalestin ians
Ġopt ions
Ġappoint ed
Ġord in
Ġord ers
ĠWilliam s
Ġminor ity
Ġcomfort able
Ġpropos al
Ġsched ul
ĠGerman y
ĠTe am
Ġlegit imate
imb augh
Ġvolunte er
Ġnar row
Ġfasc in
Ġje ans
Ġguarant ee
Ġsatis f
Ste ve
Ġresour ces
Ġsurviv ors
ĠRub io
belie vable
Ġrhetor ic
A ccording
C ould
D an
G ot
H appy
P aul
e qu
g age
h al
k i
p ing
r on
w r
w as
w eek
x ic
Ġ @
Ġt ea
Ġw aters
on ent
it ation
Ġb arely
Ġc ul
Ġto ol
Ġm aster
Ġp ock
Ġf ence
Ġf ulf
Ġn eck
Ġin her
Ġin fr
ar ity
as ters
Ġre h
ver se
Ġk iss
am s
ro c
st ead
ĠC EO
ill er
ill ips
Ġan ch
ad ed
ĠS e
ĠS qu
Ġr ow
Ġsh opp
ter ed
ĠA C
ĠA sh
ĠM id
ĠM eg
ur n
ĠB et
ĠB oard
Ġtr aff
ĠR ose
ĠH ur
ess ed
ĠN ation
ĠN ob
ĠN orthern
ok ing
Ġ" ?
ĠT ucker
ĠT songas
ĠG reat
ĠK e
ect ive
el ine
ell er
ĠL ee
ĠL ead
ost er
Ġqu arter
Ġcou pl
ure n
Ġint imid
Ġover all
Ġoff ensive
Ġun s
Ġun able
Ġcl ot
Ġcl ip
Ġpart isan
ĠE m
vi le
Ġbr ut
Ġbr own
Ġbr others
Ġdis h
Ġlet s
Ġput s
Ġatt orneys
Ġwar m
Ġsec ure
Ġdef eat
con t
Ġfl at
az el
Ġleg acy
Ġass ass
Ġass istance
Ġfound ation
Ġinvestig ations
Ġoffic es
ĠMar sh
ĠMar ines
Ġpri vile
olog ist
Ġtest ify
ĠIs land
Ġtrans cript
Ġprot ests
Ġbegin s
Ġair port
Ġmark ets
Ġdeath s
Ġfore cl
Ġattack ed
led ge
ĠIn stitute
Ġdem ocrat
Ġmess ages
Ġprov iding
Ġsug ar
Ġbur ied
ĠWar ren
Ch ar
ĠGr amm
Ġprison ers
Ġmurder ed
Ġlight s
Ġ199 4
Ġdra wn
Ġeng age
Ġeffort s
ĠTH IS
Ġbrief ly
Ġcitiz en
Ġphys ically
ograph y
Ġcell s
ĠBro oke
Ġcongress man
Ġprofess or
Ġbel ow
Ġz ero
Ġveter an
Ġenem ies
Ġproduc ed
Ġbal ance
Ġearth quake
Ġencour age
Ġet hn
Ġtank s
Ġwealth y
Ġcapt ured
Ġrout ine
ĠJew ish
Congress man
Ġaltern ative
Ġfarm ers
Ġer u
Ġreject ed
ĠWil son
Ġpregn ant
Ġlic ense
Mich ael
Pel age
Ġinapp ropriate
ĠNev ada
Ġbip art
' ?
4 9
A d
A h
B O
O T
T ed
a hn
c oming
l ies
l ook
p e
u is
w ide
er ation
Ġw ise
Ġto ler
Ġf ab
Ġd omin
Ġd aught
Ġd uty
Ġn av
Ġin aug
ar io
as m
as ury
Ġg ift
ic ial
le en
ut ed
Ġfor ty
Ġwas nt
Ġst ab
Ġst eal
st ate
ĠC O
ĠC ub
ĠC omp
ĠS u
ĠS ylv
Ġr ally
Ġj oy
ĠA le
ĠA ff
ĠM e
ol es
ur ies
ant ly
ge l
il os
Ġcon sequ
ĠB y
ĠP an
ist ing
ĠR ebecca
Ġch ea
Ġch air
ĠD e
ĠJ ac
Ġv o
ĠT er
ĠT ony
ĠT iger
os es
ĠG ary
ĠF orce
Ġag ency
Ġpl ot
ĠL ord
ĠL imbaugh
ra e
ous ly
ĠO ur
Ġint ense
Ġcl ock
Ġcl ient
Ġcl ub
iz es
ĠE nd
Ġexp and
Ġac qu
ĠCh en
Ġwr ink
vern ment
ĠRep resent
Ġreal istic
Ġcare fully
Ġph ilos
Ġplay s
Ġimp ro
Ġdr ama
ilit ary
Ġelect ric
Ġreg ime
ĠMar ia
Ġsex ually
app er
Ġwin ner
Ġbeh alf
ott en
Ġexpect ations
Ġconv inc
Ġprof ession
Ġsent enced
Ġsw itch
Ġsol id
Ġprom ises
Ġdiscuss ed
Ġthreat s
Ġthreat ened
yl an
Ġtom at
CH RIS
Every one
Ġspe ed
Ġlevel s
ev in
ĠCo oper
ĠCo oley
Ġ201 0
Ġmain tain
Ġtyp es
Ġ199 2
Ġreform s
Ġprep are
DA M
ID S
isc o
Ġfocus ing
Ġeng aged
AL K
Ġaut o
Ġlif etime
Ġunc ertain
Ġrecogn ized
Ġdefend ing
Ġbott le
Ġphys ic
Ġtor n
ĠHow ard
Ġpray er
Ġhell o
Ġconc ert
ĠPol it
ĠPol ice
Ġslow ly
Ġtruck s
Ġveh icles
go ing
Ġhistor ic
Ġpred ict
Ġscient ists
ĠSand ers
Ġcolumn ist
Ġestablish ment
Ġcommit ment
Ġlaunch ed
ĠMur phy
ĠPar is
Ġmult iple
Ġstruct ure
Ġrepeated ly
Ġscream ing
ĠPort land
ici ary
Ġgro cer
cell ent
Ġminim um
Ġprecise ly
Ġwithd raw
Ġalb um
fess or
Ġtraff ic
Ġethn ic
Ġdaught ers
ĠSylv ia
Ġconvinc ing
2 8
2 50
D onald
L AN
L ater
P r
S c
g ers
g ie
h ere
i ance
i ors
i pping
i ques
i had
l as
m ates
t able
w oman
Ġt oug
Ġt apes
Ġa is
Ġw ave
Ġs ink
Ġs oul
Ġh om
Ġh ide
Ġb ible
Ġb orrow
Ġto xic
Ġm ood
Ġp ill
Ġp itch
Ġp owers
Ġd rove
Ġl oud
ic a
ĠI S
ot es
Ġe g
Ġe p
Ġre in
ig ger
ld ers
Ġst ret
ro it
ĠC he
ĠC ynthia
ill y
ill iant
ĠS usan
Ġr ush
Ġsh aring
ter ior
th ey
ĠA g
Ġknow ledge
Ġwhat so
ew ay
ge ant
Ġcon cent
Ġcon cept
ĠB el
ist ant
ist ry
Wh ether
Ġlo ves
ok es
ea uses
ĠT re
ĠT erry
Ġup d
ong ratulations
ast ics
ĠF rench
Ġher oes
Ġsp in
el p
ĠL ieutenant
act ion
ĠU N
Ġman aged
Ġse gment
Ġover night
ak ed
Ġsomet ime
Ġun p
Ġun its
Ġun ique
Ġcl ients
port s
Ġbr ight
Ġdis s
Ġapp e
Ġrec all
Ġbeing s
Ġam endment
Ġsc ar
Ġsc ale
Ġatt end
Ġfact ory
Ġrem ote
Ġend ing
Ġend orse
Ġcons um
Ġ3 6
Ġrel ax
Ġnight m
az a
Ġsm ile
Ġdifferent ly
Ġsupport s
Ġinvestig ating
Ġunderstand s
Ġhead ing
Ġreg ret
Ġreg ulation
Ġ4 5
Ġ4 8
Ġent it
ĠMc V
Ġdeb ris
Ġlea ves
Ġbreak s
Ġsub sid
ĠFr anc
Ġstay ing
Ġstrong er
ann a
ann el
Ġexper iment
Ġsound ed
St ay
ĠComm unist
Ġdiscuss ing
ĠIsrael is
Al though
cri ption
Ġap artment
ĠUS S
Ġhost ages
Ġmag n
Ġindust rial
ĠSch umer
Ġintern et
Ġterror ism
Ġseat s
Ġcele b
Ġlif t
Ġprod uce
Ġrepresent ed
ĠJan ine
Ġdeli ber
Any way
Ġpers u
Ġremark s
Ġult imate
Ġthrow ing
Ġstrugg ling
Ġcitizens hip
Ġprior ity
Ġsett lement
Ġfrust ration
Ġhous ing
ĠLa Donna
ĠLa uren
Sec ond
Ġgrab bed
Ġsched ule
Ġtradition al
Ġunlike ly
ĠDet roit
Ġdetermin ed
Ġqual ified
Ġport ray
Ġpoet ry
ĠLib ya
ĠMorm on
aed a
Ġmeas ures
Ġbasket ball
Ġfisc al
ĠHann ity
Ġreput ation
Ġcoupl es
Ġtoug her
Ġwhatso ever
eauses cu
D R
D emocrat
D uring
F ord
H AN
H ER
I L
I M
M iss
N e
N ever
P eter
Q u
V E
b oy
c ient
e le
l ong
m str
o om
o il
t ained
u ate
v ard
Ġ ing
Ġ ...
Ġ era
Ġt iss
er as
er oy
Ġw age
re ll
Ġh yp
Ġc ards
Ġto ll
Ġto ile
Ġm ic
Ġm al
Ġp in
Ġd y
Ġd er
Ġd ial
Ġd ict
Ġn ations
Ġn urse
om a
ic ing
Ġwh ist
id al
Th eres
ut to
Ġhe avi
ĠC eausescu
Ġan alysis
ad h
ad im
ĠS ome
ĠS uc
Ġr ing
Ġsh all
Ġsh ips
Ġab andon
ĠA IDS
ĠM ac
ur ation
Ġall ied
Ġwho ever
Ġor g
ĠR ec
ĠR og
Ġch icken
ĠD arnell
Ġpro ven
ul s
ĠN atal
Ġbut ton
Ġv illage
one l
ĠT ea
ĠG re
ĠG reg
ast ructure
Ġmy th
em i
ĠF aith
ĠF ein
Ġus ual
el son
ĠW a
ĠW oods
ĠW OMAN
Ġpl ain
oc aust
int ellig
Ġev il
Ġint ended
Ġ2 000
Ġco ff
Ġact s
Ġpart ly
ĠE astern
Ġpo ol
Ġwork er
Ġcomp ared
ang le
Ġsupp lies
In stead
Ġbl ast
iss a
Ġgovernment s
Ġcons ult
ĠTr ans
up s
ertain ly
li ot
az on
Ġsy mp
Ġ4 00
ĠMar co
Ġfour th
Ġent er
Ġem ail
Ġwin s
For mer
ĠCon nect
ier re
Ġinvol ving
ĠAr k
Ġprov ision
Ġcap acity
ĠChrist ine
Ġconv iction
ĠRo e
Ġprof ile
Ġsw ing
Ġsk ills
Ġeffect ively
Ġdiv orced
Ġann ivers
Ġviol ation
Ġbur ned
Ġpersonal ity
Ġemb argo
Ġconsid ering
Ġtechn iques
Sh uster
Ġdead line
Ġincre ases
Ġcred ible
Ġlegisl ative
Ġsocial ism
Ab out
Ġdest ruct
ĠBl ake
abl es
ĠPat rick
Ġprim arily
Ġopin ions
Rep ublic
Ġfac ed
ĠAs ia
ĠEd wards
Ġrac ist
ĠCol umb
Ġpan ic
Ġaccept ed
Ġident ity
elect ion
Ġdream s
Ġvar iety
ĠIndian a
Ġcooper ate
Ġcust ody
ĠJud y
ĠPet rae
ĠColl ins
ĠKim berly
Ġeth ics
Ġdevast ating
Ġloyal ty
Ġcomed ian
Ġdig ital
Ġdeleg ates
Ġintrod uce
Ġassoc iated
ĠSm ith
ĠHis pan
Ġbureauc racy
Ġnurs es
fe ld
Ġphr ase
Ġobl ig
Ġdownt own
ĠPac ific
Ġinfr astructure
Ġclot hing
Ġdemocrat ic
Ġphilos oph
ĠMcV ay
mstr ong
intellig ible
ĠPetrae us
1 00
3 7
A EL
C ongratulations
G r
G ive
H Y
I AL
M ean
N umber
T S
T AMARYN
f our
m ission
p et
r or
Ġt im
Ġt ie
Ġt one
Ġt ast
Ġt ears
in ally
er ves
Ġw ire
Ġh i
Ġh oney
it ors
it ious
Ġb es
Ġb one
Ġc ens
or ado
Ġm os
Ġp ra
Ġf iring
Ġin qu
Ġg ar
Ġg ained
Ġg ender
Ġg ifts
ic er
ic ating
us i
Ġre vers
ut ing
ac o
Ġst uck
Ġst ars
st anding
ĠS ex
Ġr ank
Ġsh ame
Ġab used
th rough
ĠA pp
ĠM ot
ĠM arg
ur ry
ch ed
Ġme at
ate ver
ore n
Ġcon stit
ĠB ess
ĠB erm
ĠR E
Ġch a
ĠH aw
ĠH ash
ĠH uman
ĠD eb
and er
Ġv ent
oug las
Ġex act
os ition
Ġwant ing
ĠK ir
ap ter
ect ion
Ġyour s
Ġsp ring
ud a
ĠW olf
Ġpl at
ĠL ive
Ġle an
ag anda
Ġman ner
ia b
ree k
ĠE n
ĠE mm
ĠSt ep
Ġcall er
ĠCh airman
ach ed
ord er
Ġapp le
pt y
Ġcr uc
ang ers
Ġbl ank
Ġlaw makers
ib i
Ġtur key
ather ine
ĠCl ark
Ġfin ance
Ġlead s
Ġkid ding
Ġsm oke
Ġleg s
Ġhand led
Ġset s
Ġadd ed
atter ed
Ġent h
Ġfew er
Ġhope fully
Ġsystem s
Ġsub urb
Ġem ph
Ġext ended
Ġwin ter
Ġrest rict
Ġfore ns
ony m
ov a
ĠSh ow
ĠSh aron
Ġprov ided
Ġgirl friend
Ġdist urb
Ġsen ate
Ġmet hod
Ġallow s
Ġsol ved
Ġmus ical
Ġprop ert
Ġmem o
Ġmem ory
Ġrad ar
Ġbur ning
Ġclaim ing
Ġfig ures
Ġpar ade
Ġsuggest s
Ġest ate
Ġcred ibility
Ġhur ting
Ġshot s
Ġliber als
Ġprep aring
DA VID
Ġlarge ly
Ġbab ies
Ġjournal ism
Ġscen ario
Ġpain ful
Ġpull ing
ĠJim my
Ġcommun ications
Ġdra g
ĠAs ian
Ġfur ious
Ġactiv ities
ĠCol orado
err ing
ĠPro Pelage
Ġbed room
ĠEx cerpt
ĠFor rest
ĠMay or
Ġemot ion
Ġpsych iat
Ġproduc er
ĠIntern ational
ĠNAT ION
Ob ama
Ġinit ially
Amb assador
ĠSer b
Ġscient ific
Ġcop y
Ġrecommend ations
Ar tyomov
Ġcontroll ed
Ġhang ing
Ġmanufact uring
Ġdemon st
Ġdisappoint ed
ĠHol ocaust
MICH AEL
ĠLat ino
Ġfirefight ers
Ġfundament al
ixt y
ĠBri an
Ġdecl ared
Ġtit le
idel ines
ĠNiger ia
Ġdistin ction
Ge orge
ĠInt elligence
ĠAmb assador
Ġtaxpay er
ĠCruz an
Comm unist
Ġerr or
Ġbipart isan
ĠIS IS
ĠConnect ic
ĠArk ansas
Ġannivers ary
ĠBerm uda
2 00
B ar
C ar
C ertainly
E l
E lect
G B
G eneral
L ynn
R Y
T O
V IN
W oman
b ro
d ict
h as
l ish
l av
m other
r id
Ġ X
Ġt ip
Ġt iny
Ġth rew
in er
in son
Ġw ing
Ġw estern
Ġs in
Ġs amp
Ġs li
Ġh ook
Ġc ere
Ġm isc
Ġp uzz
Ġf aster
Ġd ivers
Ġd irty
Ġn in
Ġbe ating
Ġbe ef
al ian
le vel
ot ic
ot ion
ay le
Ġwe b
Ġwe ird
out s
se mb
Ġst icking
Ġst yle
all ie
ĠC her
ĠC ast
ĠC are
ĠS ur
ĠS ant
ĠS ara
Ġr om
Ġsh ift
Ġsh ocking
Ġnot es
ĠM O
ĠM er
ĠM ush
ĠM ik
ol t
od a
od d
Ġli ed
ate g
Ġfr aud
ĠB as
ĠP ower
Ġtr ies
ain e
ear ing
ĠR ay
ĠR and
ĠR uth
Ġch ose
Ġch ances
ĠH O
ĠD arl
ĠJ es
Ġv ig
Ġal i
You re
os i
ĠK opp
Ġwhen ever
Ġus es
Ġag rees
ell e
Ġyear book
ĠL ind
ra v
ĠO f
ĠO ld
Ġman ip
Ġ2 3
Ġun h
Ġun intelligible
Ġact ress
ĠE ven
ĠSt an
ug h
Ġcount y
Ġbr illiant
Ġinter nal
ach el
Ġlet hal
AN K
Ġpre v
Ġca res
Ġro les
ath an
ang ed
Ġsupp orter
Ġbl ind
oth y
ib an
ib ilities
Ġhome less
ange l
Ġimp lement
li ament
Ġdeal s
enc ing
Ġfriend ly
Ġdisc l
Ġdisc ip
Ġdisc rimin
ĠMar c
Ġcampaign s
Ġpres um
ah u
ex am
EL INE
Ġdep ression
ĠFr ont
duct ion
Ġloc ker
Ġsign al
Ġrecord ed
Ġsen iors
by e
Ġ7 5
Ġarg uments
Ġpat ri
Ġdiv ide
Ġoper ate
Ġnear by
ĠAn thony
osp ital
Ġprop aganda
Ġill ness
Ġprotect ing
Ġprotect ed
Ġmem or
Ġmem ories
Ġequ ally
Ġnomin ated
Ġtrou bled
Ġdead ly
Ġfall ing
Ġcompet e
Ġ199 6
Ġsupposed ly
Ġauthor ity
Ġrece iving
Ġaccount able
Ġmass ac
any ahu
af i
Ġfac ilities
Ġmot ion
ĠPr ince
cil iation
Ġlay ing
Ġappl ied
ĠBer g
hold ers
ask a
Ġcollect ion
Somet hing
Ġcritic ism
Ġproject s
ĠRe id
Pro bably
pro of
Ġsens itive
Ġgather ed
ĠSand ra
Ġholiday s
Ġprincip les
ĠTur key
Ġreflect ion
Ġunf air
Ġdeliver ed
Ġdoz ens
Ġaccompl ish
Ġfinger print
Ġdemon str
ĠBra un
Ġcontribut or
Ġrepl aced
Ġconstant ly
Ġincreasing ly
Ġapolog ized
ĠServ ice
ĠTal iban
ĠOff ice
yc le
Ġdesper ate
Ġpenal ty
Ġathlet es
Ġtempor ary
Ġvulner able
Ġug ly
ĠFore ign
Ġshopp ing
Ġais le
ĠBess ette
Ġenth usi
ĠConnectic ut
semb ly
ĠKopp el
A F
L ea
M ike
P A
R es
S am
S imon
W atch
Y et
a q
c rosstalk
d e
f it
i us
l an
o ly
o ody
u ge
u ous
v in
y er
z ed
Ġt un
Ġt rench
Ġth or
Ġh ug
Ġh its
Ġh idden
Ġc ateg
Ġto ols
or is
Ġm and
Ġm ath
Ġp al
Ġp leased
ar p
ar raf
Ġl it
Ġg ym
Ġbe e
Ġbe ll
ĠI CE
us al
Ġha mmer
Ġe lement
Ġre ly
Ġre un
Ġwe igh
Ġwas te
Ġst eel
am el
ĠC ont
Ġan x
Ġan onym
Ġr amp
Ġr ib
Ġr ange
Ġr aces
Ġsh r
Ġsh if
Ġsh op
th is
ĠM iller
res ents
ĠB aker
ĠP ut
Ġor ph
ĠR el
ĠH ave
ĠH elmsley
ĠD AT
ĠD aily
ul ating
ĠN elson
ok ie
Ġv an
ĠT ALK
ĠG ut
ĠK ent
ĠK evin
are t
ĠW ood
Ġpl astic
ĠL ank
oc ol
ĠO k
Ġoff ering
Ġtw ice
Ġun ivers
Ġun iver
Ġun believable
ĠE D
Ġmake up
Ġcont est
Ġcomp ar
ond a
vi ation
Ġinter rupt
Ġgr ie
Ġgr anted
Ġshould er
Ġca ble
Ġca using
ĠV er
ĠV oice
og ether
Ġbet ray
ĠRep orter
ons in
Ġbl og
Ġquestion ed
iss ipp
Ġcons ens
Ġins pired
Let s
Ġbre ad
Ġeconom ics
Ġleg ally
Ġelect or
Ġfound er
Ġinvestig ated
Ġopp ose
ĠBr ad
Ġbad ly
Ġelse where
Ġinterview ing
Ġspea ks
Ġdep art
Ġra ises
Ġexpl ained
rib ly
Ġattack ing
Ġve get
Ġinclud ed
Ġlisten ed
Ġdifficult y
Ġcur ious
Ġsw eep
Ġheart s
Ġsk y
eter a
Ġoper ating
Ġspeak er
Ġmarket place
Ġretur ning
Ġbur n
Ġpar king
Ġbeaut y
Ġappro val
Ġjud icial
Ġ201 1
onn ell
Ġce ase
ĠIran ians
Ġrul ing
Ġlaws uits
Ġdri ven
isc onsin
Ġcoun cil
Ġbattle field
ĠChar l
Ġcommun icate
Ġcam eras
Ġrap id
May or
Ġrac ing
Ġcharac ters
Ġhar m
Ġhar sh
Ġdam aging
Ġnegot iate
Ġeditor ial
TI ON
Ġwal ks
ĠSyri an
Ġperfect ly
Ġdro pping
Ġconduct ed
ĠKore an
Ġadvis ers
ai i
Ġmoder ate
Ġinj uries
Ġcooper ation
ĠJud d
Ġtweet ing
Ġtweet ed
Ġment al
Ġsusp icious
burg h
Ġencour aged
New s
Ġforg otten
ĠGreen ville
Ġrough ly
Ġsurr ounded
Ġsurr ounding
Ġelimin ate
Ġsaving s
orge ous
Ġanim als
Ġstrateg ist
MICH EL
Ġcontr ast
Ġresign ation
Ġpurs ue
ĠFed eral
Ġattract ive
Ġjur ors
ĠAust in
ĠNet anyahu
ĠTri angle
iven ess
Ġgall on
Ġslight ly
ĠBrook s
Ġtele ph
Ġinstru ment
Ġestim ated
Ġharass ment
ĠJen nings
Ġsymb ol
Ġtact ics
Ġterrit ory
Ġcondem n
Ġpatter n
Ġsatisf ied
Ġeru pt
Ġnightm are
Ġdy nam
Ġdestruct ion
ĠMush arraf
Ġthor ough
Ġuniver se
issipp i
A W
A BC
C ol
C arl
H ill
J ud
M ark
O k
P EC
S E
S ay
S ix
T OP
b a
b ie
d ers
f l
f are
g ate
i rop
m ind
r in
r ue
s hip
u a
u ine
x y
z ing
z en
Ġt ips
Ġa im
Ġa ward
Ġa uth
Ġw ra
Ġw oke
on om
Ġh ill
Ġh itting
is d
Ġb ump
Ġc etera
Ġm ail
Ġm others
Ġp ump
Ġp ages
Ġp icking
Ġf ate
es ome
Ġd u
Ġd uck
Ġd ressed
ar o
Ġy ellow
Ġl en
Ġl one
Ġg iant
Ġyou th
ĠI ve
le m
ot om
us hner
Ġe ast
Ġdo gs
ac r
Ġgo d
am mer
st al
ke ep
ĠC ons
ĠC ork
ĠS imon
Ġr u
Ġsh ake
Ġj u
th ouse
ĠA ny
ĠM ore
ĠM ost
ĠM asters
est ing
Ġli br
Ġcon g
ĠB uck
ĠP el
ĠR od
ĠR iver
ĠH i
ĠH y
ĠH er
ĠH ay
ĠH all
ĠH ank
ĠH azel
ĠH ospital
ĠD own
ĠD ave
ĠD ean
ess ica
ĠN eal
ea king
Ġv en
ĠT am
ĠT onight
un ior
ĠG adh
ĠK ushner
Ġshe ll
ĠF ire
Ġsee king
ap ing
Ġsp ill
Ġsp ons
ell ect
ĠL ittle
ĠL uis
oc ument
Ġback ed
Ġqu it
They re
ag gie
Ġint ent
Ġint end
Ġint ellect
Ġover t
Ġun w
Ġun con
Ġun pre
Ġpart ners
ĠE very
ĠE gy
ĠE liot
ĠSt orm
ĠNew t
Ġcont ent
Ġen h
Ġgr ant
Ġgr ade
ick ering
ne ath
Ġunder c
Ġunder neath
Ġcr ush
ĠV an
ĠV eter
Ġbo at
ath etic
Ġinc omp
av es
Ġwar ned
Ġmo ves
ren ce
Ġcons ist
Ġ3 3
Ġind ict
Ġind icate
Ġ19 91
Ġrep resents
Ġear ned
Ġfind s
Ġpercent age
Ġsch ol
uck y
Ġdes ert
Ġcor rupt
Ġhard ly
Ġgen uine
Ġpay ments
ash ed
Ġpri ests
olog ists
Ġlea k
ĠIt alian
Ġfun ction
Ġref erring
oun ce
oun ced
ĠTh ese
Ġstrong est
ĠAr mstrong
NN ED
ĠMich el
cl ass
Ġprof its
Ġalleg ation
Ġ200 1
Ġteam s
Ġrequ ires
Ġart ist
Ġart ists
Ġtechn ical
ĠDo ctor
Ġchallen ged
ĠHar vard
Ġincre ased
Ġexc iting
Ġdevelop ing
Ġris ks
Ġvide os
ĠMiss issippi
Ġfail ing
Ġ199 0
Ġsearch ing
With out
Ġstat istics
Ġcirc us
Ġbi as
Ġcompl ain
Ġcivil ians
Ġsal ary
Ġbroad er
Ġeduc ated
Ġregard less
Ġdisapp eared
